<pad>	0
<unk>	0
.	-3.40642
▁	-3.60099
?	-3.66112
가	-4.18658
이	-4.55917
▁너무	-4.82083
도	-4.83497
▁좋아하는	-4.87167
고	-4.91425
을	-4.95213
는	-5.11899
지	-5.12224
▁나	-5.12329
게	-5.16333
▁안	-5.22274
▁거	-5.30164
▁싶어	-5.37398
은	-5.37635
를	-5.42794
▁사람	-5.43141
▁같아	-5.46035
랑	-5.51561
▁썸	-5.57895
서	-5.59565
▁이별	-5.61805
네	-5.62013
의	-5.63962
▁좀	-5.69286
에	-5.70155
▁내	-5.73482
▁사람이	-5.74579
▁내가	-5.80063
▁왜	-5.82051
다	-5.82346
▁잘	-5.8411
면	-5.85873
▁자	-5.88636
▁싶다	-5.88878
▁어떻게	-5.89185
▁수	-5.8987
▁남자친구	-5.89879
▁오늘	-5.90191
▁것	-5.90461
한	-5.96438
어	-5.96796
▁없어	-5.96869
▁여자친구	-5.98296
만	-5.98926
해	-6.01873
▁사랑	-6.03352
로	-6.04294
▁여자	-6.04892
▁다	-6.08249
▁뭐	-6.09103
에서	-6.09681
는데	-6.12199
▁연애	-6.13851
꾸	-6.14849
▁이제	-6.15106
▁좋아	-6.17228
▁있어	-6.17301
야	-6.17403
▁말	-6.17596
하고	-6.1762
나	-6.1914
▁또	-6.20792
년	-6.21604
인데	-6.27062
▁해	-6.27463
▁많이	-6.29205
▁헤어진지	-6.3018
▁그	-6.3153
▁다시	-6.32369
▁있을까	-6.34852
▁연락	-6.40165
▁더	-6.40464
으로	-6.40803
▁될까	-6.41151
▁친구	-6.42593
▁이	-6.43035
▁못	-6.43168
▁정말	-6.43635
▁남자	-6.44003
▁짝녀	-6.44474
기	-6.45611
한테	-6.46381
요	-6.48256
▁진짜	-6.48394
하는	-6.55519
▁선물	-6.57561
▁마음	-6.63929
▁있는	-6.64993
▁짝남이	-6.65171
데	-6.65243
▁한	-6.66548
▁방법	-6.68846
▁날	-6.69628
▁하는	-6.70023
거	-6.70821
▁애	-6.71756
▁계속	-6.7205
▁게	-6.7228
히	-6.7248
▁할까	-6.73174
▁하고	-6.73993
▁때	-6.74133
▁짝사랑	-6.74369
▁혼자	-6.74486
▁중	-6.74631
▁힘드네	-6.76011
▁술	-6.77022
▁결혼	-6.7852
먹고	-6.7943
▁이렇게	-6.80235
▁생각	-6.80573
▁나만	-6.81209
▁일	-6.81412
▁가	-6.8184
▁너	-6.82124
던	-6.83113
▁짝남	-6.83644
▁다른	-6.85336
▁있는데	-6.8588
!	-6.86138
▁카톡	-6.87441
▁2	-6.87453
는게	-6.88099
▁1	-6.8824
▁참	-6.88445
했어	-6.88708
▁없는	-6.89015
▁아	-6.89196
▁안돼	-6.8956
나를	-6.89646
일	-6.90222
▁돼	-6.90404
▁타는	-6.91467
할까	-6.92199
▁싫어	-6.94113
▁3	-6.94394
▁헤어진	-6.95041
▁그냥	-6.95565
까	-6.9579
으면	-6.96291
▁줄	-6.96868
하면	-6.98222
니	-6.99926
▁사	-6.9997
해도	-7.00035
▁후	-7.00685
라	-7.00744
▁힘들어	-7.01773
▁전	-7.02001
▁모르겠어	-7.02013
▁좋은	-7.0204
▁좋겠다	-7.02113
▁같은데	-7.02249
▁같이	-7.02422
▁나한테	-7.02633
▁살	-7.03882
▁마음이	-7.0404
자	-7.04505
▁그녀	-7.04918
▁많아	-7.05919
▁머리	-7.07745
▁할	-7.08718
▁하나	-7.10814
니까	-7.12165
▁연락이	-7.12525
대	-7.13225
리	-7.13317
▁가고	-7.13353
▁듯	-7.15006
▁돈	-7.1543
▁좋겠어	-7.16199
▁반	-7.16237
▁보고	-7.16419
▁아무	-7.17065
라고	-7.17527
주	-7.17803
▁친구가	-7.18344
과	-7.1846
▁좋을까	-7.18471
려	-7.19816
할	-7.19933
▁사랑이	-7.21439
▁결국	-7.21513
▁사랑하는	-7.21609
까지	-7.21923
자고	-7.24382
▁오래	-7.2473
하게	-7.24954
▁나는	-7.2564
이야	-7.2571
인	-7.25726
▁하루	-7.25791
▁걸	-7.26289
▁만나	-7.26969
▁전화	-7.27128
▁해도	-7.27847
,	-7.28062
▁데이트	-7.28145
▁와	-7.28164
▁하	-7.29252
래	-7.29357
▁지금	-7.29769
수	-7.29808
▁어때	-7.30454
▁싶은데	-7.31112
▁내일	-7.32295
에게	-7.32409
▁한달	-7.32626
▁해볼까	-7.32858
▁힘든	-7.33495
져	-7.33627
▁우리	-7.33982
▁여친	-7.34016
▁같애	-7.34959
▁어제	-7.35068
▁무슨	-7.35199
진	-7.35589
▁아직도	-7.35603
▁남자애	-7.35673
▁집	-7.35847
개월	-7.36383
▁끝	-7.36391
▁저	-7.37165
▁시간이	-7.37786
야지	-7.38115
와	-7.38629
▁공부	-7.39047
▁어떤	-7.3945
봐	-7.39512
▁먼저	-7.39632
▁이젠	-7.3964
▁알았는데	-7.39862
▁뭘까	-7.40057
▁제	-7.40886
▁고백	-7.41243
자기	-7.41244
▁마지막	-7.41523
▁비	-7.41744
▁아파	-7.41932
▁헤어지고	-7.42028
▁때문에	-7.42557
함	-7.42615
▁없네	-7.43085
▁들어	-7.43308
▁왔어	-7.43857
▁남자가	-7.44104
▁어떡해	-7.44655
▁짝남한테	-7.45037
▁관심	-7.45055
▁했는데	-7.45486
▁준비	-7.46107
▁시간	-7.46824
음	-7.47462
▁썸남	-7.48113
▁하지	-7.48436
▁남친	-7.49046
▁꿈	-7.49639
것도	-7.49752
장	-7.5011
▁5	-7.50199
▁눈	-7.50266
▁있	-7.50712
들	-7.50776
▁갑	-7.51251
▁되나	-7.51349
▁난	-7.51452
▁여행	-7.51668
▁앞	-7.5213
▁같은	-7.52177
아	-7.52231
하는데	-7.52592
▁오	-7.52609
▁집에	-7.5275
▁오늘도	-7.53296
▁어디	-7.53737
걸	-7.53791
▁건	-7.54034
점	-7.54045
▁해야	-7.54586
습니다	-7.55354
▁재회	-7.55426
▁사진	-7.55843
겠지	-7.55851
나봐	-7.56595
러	-7.56752
▁고민	-7.5751
더니	-7.57527
인지	-7.57924
▁이야기	-7.5807
▁요즘	-7.58092
임	-7.58509
하네	-7.59118
▁4	-7.59264
▁나와	-7.60369
▁걸까	-7.61086
▁6	-7.6114
▁아침	-7.61298
▁이런	-7.61761
▁타	-7.62027
금	-7.63227
구	-7.63355
▁엄마	-7.64059
▁완전	-7.6406
일까	-7.64127
▁헤어짐	-7.64277
▁않아	-7.64326
▁살고	-7.64973
▁하면	-7.65557
▁사람한테	-7.65707
▁점	-7.66125
▁만나고	-7.66544
▁핸드폰	-7.67214
▁부	-7.68211
▁사람은	-7.68514
만에	-7.68789
▁이별을	-7.69179
▁여친이	-7.6929
▁남	-7.69754
▁소개팅	-7.69845
▁아직	-7.69879
▁가능	-7.7041
▁날씨	-7.70613
▁힘들다	-7.70647
일째	-7.70965
여	-7.71308
▁썸남이	-7.7159
▁정리	-7.72835
▁보	-7.72894
▁스트레스	-7.73786
▁뭘	-7.73897
▁입	-7.74601
했던	-7.74652
▁새	-7.753
▁밥	-7.75362
▁물	-7.76021
▁여자애	-7.76081
▁그만	-7.76654
▁잠	-7.76773
▁엄청	-7.76857
졌어	-7.76997
▁벌써	-7.77186
▁주	-7.77537
▁못하겠어	-7.77673
▁뭐야	-7.78205
▁얼마	-7.78572
었어	-7.78624
▁좋아해	-7.78912
▁지	-7.79609
▁생각해	-7.8036
▁알아	-7.80408
▁새로운	-7.80785
▁먹어야지	-7.80857
▁괜찮을까	-7.80885
▁아닌데	-7.80887
▁받아	-7.81109
하지	-7.8142
▁하는데	-7.81746
해야	-7.82177
▁몇	-7.82706
하다	-7.8306
▁느낌	-7.83814
인가	-7.83885
트	-7.8394
▁차	-7.84222
▁이유	-7.84348
▁조금	-7.84478
차	-7.8453
▁언제	-7.84545
▁만났어	-7.84572
▁많은	-7.84731
▁남편이	-7.84735
▁노래	-7.85055
▁모르는	-7.85318
줄	-7.85333
▁있나	-7.85367
볼까	-7.85544
▁밤	-7.85765
▁피	-7.85901
▁만난	-7.85985
▁먹	-7.86382
발	-7.86394
▁만나는	-7.86562
▁기분	-7.87171
상	-7.87173
▁운동	-7.87902
▁마음에	-7.88215
▁부모님	-7.88326
▁귀찮아	-7.88359
▁커피	-7.88524
▁넘	-7.88584
▁괜찮은	-7.88693
친구가	-7.88882
▁짝녀한테	-7.88902
▁매일	-7.88923
보다	-7.8913
▁끝나	-7.9031
▁간다	-7.90359
다고	-7.90989
▁되는	-7.91542
▁이별후	-7.91603
▁됐어	-7.91613
▁생각나	-7.91718
▁자기	-7.91758
부터	-7.92126
▁기	-7.92239
▁사귀	-7.92492
▁고민이야	-7.92517
▁시험	-7.92531
▁헤어졌습니다	-7.92625
증	-7.9267
듯	-7.9328
▁일이	-7.93399
▁좋아하게	-7.9351
▁길	-7.94054
이라	-7.94348
▁제가	-7.94823
▁막	-7.9486
▁했어	-7.95009
대로	-7.95248
운	-7.954
제일	-7.95449
마	-7.95576
▁생각이	-7.96259
▁알려줘	-7.96491
▁행복해	-7.96535
▁합니다	-7.96761
제	-7.96767
해서	-7.96816
달	-7.96891
▁맨날	-7.9696
▁무	-7.96981
▁손	-7.97194
▁알바	-7.9766
이나	-7.97966
▁화장	-7.98235
▁남친이	-7.98438
적	-7.98538
▁마	-7.9864
입니다	-7.9878
▁법	-7.99561
▁기다리	-7.99806
질	-7.99877
을까	-7.99893
▁상처	-8.00055
▁쉬	-8.00335
▁얼굴	-8.00801
▁꽃	-8.01034
▁빨리	-8.01071
▁궁금해	-8.01201
▁딱	-8.0125
▁좋은데	-8.01259
▁목	-8.0128
▁꿈에	-8.01297
▁싫다	-8.01386
지만	-8.01515
▁되네	-8.01727
더라	-8.01916
▁코	-8.02079
줘	-8.02259
전	-8.02443
▁여자애가	-8.02861
▁학교	-8.03196
겠어	-8.03766
▁배	-8.0379
▁연락을	-8.04084
▁아프	-8.04173
▁전여친	-8.04313
린	-8.04628
▁두	-8.04721
들이	-8.05116
▁추천	-8.05314
▁감정	-8.05367
▁드디어	-8.05371
▁어려워	-8.05377
▁만날	-8.05394
정	-8.05403
길	-8.05517
▁동	-8.05849
▁첫사랑	-8.06089
▁문제	-8.06208
긴	-8.06268
▁시작	-8.06302
▁몸	-8.06478
했는데	-8.06548
▁그래	-8.06794
냐	-8.07041
▁좋다	-8.0737
사	-8.07724
애가	-8.07816
▁좋아하는데	-8.08187
▁죽을	-8.08212
▁기억	-8.0833
했으면	-8.08723
▁알	-8.08745
▁안해	-8.09289
거야	-8.0933
▁받고	-8.09806
것	-8.09823
수록	-8.0985
▁정	-8.09971
▁모든	-8.10119
▁무서워	-8.10142
하	-8.1027
▁맘	-8.10281
▁문자	-8.10752
▁친구들이	-8.10913
텐데	-8.11046
▁화	-8.11412
~	-8.11444
▁회사	-8.11454
▁영화	-8.11639
▁타고	-8.11646
▁첫	-8.11844
치	-8.12009
▁글	-8.12092
이별한	-8.12348
▁매	-8.12393
적인	-8.12653
시	-8.13246
식	-8.13254
▁가야	-8.13966
날	-8.1418
원	-8.1448
씩	-8.14956
▁졸	-8.15059
▁떨려	-8.15125
▁필요해	-8.15154
내	-8.15204
▁처음	-8.1525
▁인생	-8.15485
▁서로	-8.15596
▁옷	-8.15622
▁대	-8.15766
▁말이	-8.16076
▁시간을	-8.16491
▁연락하고	-8.16594
▁좋	-8.16659
▁티	-8.17
해야지	-8.17125
▁모	-8.1735
때	-8.17555
▁사이	-8.17923
▁두달	-8.17998
▁썸녀	-8.18261
번	-8.18844
합니다	-8.18997
▁프사	-8.19164
▁전남친	-8.19364
없이	-8.19393
심	-8.19481
▁볼까	-8.19861
▁좋아하면	-8.20013
▁아닌	-8.20261
통	-8.20387
▁게임	-8.20488
째	-8.20552
!!	-8.20585
▁꼭	-8.20595
비	-8.20708
▁뭔가	-8.2076
▁열	-8.20818
▁볼	-8.20878
같아	-8.20927
▁책	-8.20934
▁자주	-8.21089
▁없	-8.21149
▁된	-8.21346
▁싶은	-8.21414
▁보고싶어	-8.21453
▁달	-8.21565
▁그리고	-8.21569
▁그녀를	-8.21644
▁후폭풍	-8.21709
▁먹을	-8.21819
▁만남	-8.21889
려고	-8.21921
▁아니	-8.22174
디	-8.2222
▁관계	-8.22307
▁봐	-8.22322
▁받았어	-8.22404
▁탈	-8.22631
해볼까	-8.22896
▁사람들	-8.22955
▁헤어지	-8.2303
▁만나자	-8.23084
▁줘	-8.23296
▁폰	-8.23771
▁연락해도	-8.24515
▁사귀고	-8.24883
▁눈물	-8.24972
▁봄	-8.2498
▁나서	-8.25076
▁보내	-8.25114
▁비싸	-8.25494
우	-8.25627
▁누구	-8.2588
▁월급	-8.25903
▁오빠	-8.25912
▁안경	-8.26027
▁10	-8.26116
선	-8.26161
▁설레	-8.26429
▁개	-8.26555
▁소리	-8.2662
하면서	-8.26637
▁잘하는	-8.26676
년째	-8.26718
▁놀	-8.26832
▁세상	-8.26961
▁힘들	-8.27092
▁잔	-8.2727
후	-8.2737
▁있습니다	-8.2752
▁될	-8.27546
▁갈	-8.27596
▁편지	-8.27894
건	-8.27964
▁신	-8.2805
동안	-8.28296
▁나랑	-8.28917
▁가기	-8.29192
▁갖	-8.29203
▁예쁘	-8.30004
신	-8.30032
▁없다	-8.30116
건가	-8.30145
걸까	-8.30274
▁생겼	-8.315
처럼	-8.31651
항	-8.31657
▁괜	-8.31729
▁어느	-8.31782
▁약속	-8.31786
▁자존감	-8.31807
▁보통	-8.31848
▁답	-8.31862
▁안들어	-8.31869
▁알게	-8.32042
▁직장	-8.32045
▁의미	-8.32074
해줘	-8.32076
이네	-8.32078
▁집착	-8.32099
ᅮ	-8.32229
▁맞는	-8.32241
▁잘못	-8.32261
▁남자들	-8.32927
▁뭐라고	-8.33007
겠죠	-8.33091
▁친구한테	-8.33421
▁같네	-8.33463
▁스킨십	-8.33633
하기	-8.33714
죠	-8.33777
▁미련	-8.34283
▁톡	-8.34301
는거	-8.34361
돼	-8.34801
야겠다	-8.35196
▁생겼어	-8.35382
▁적	-8.35501
▁단	-8.35807
▁휴	-8.35936
▁좋아할까	-8.35953
▁보는	-8.36675
▁건가	-8.36684
두	-8.37029
▁이제는	-8.37067
부	-8.37306
▁싸	-8.37499
▁짜증나	-8.37558
▁표현	-8.37805
▁바람	-8.37931
▁담배	-8.38023
▁새벽	-8.38024
▁면접	-8.38024
▁발표	-8.38029
▁거짓말	-8.38051
▁헤어졌어	-8.38212
▁후회	-8.38251
▁이상해	-8.38548
▁여자친구와	-8.38667
▁안나	-8.38886
▁힘이	-8.38915
▁돈이	-8.38955
▁갈까	-8.39131
▁눈물이	-8.39206
케	-8.39267
▁심해	-8.39307
▁좋을	-8.39351
ᅲ	-8.39356
▁가는	-8.39431
▁약	-8.39445
▁만	-8.39453
▁아픈	-8.39527
▁기분이	-8.39553
▁마시	-8.39709
▁썸타는	-8.39851
니다	-8.40133
집	-8.40457
▁사랑해	-8.40636
▁강	-8.40683
▁안되는	-8.40836
▁정도	-8.41012
▁되는데	-8.41022
▁가슴	-8.41238
가면	-8.41418
다가	-8.41869
▁살까	-8.42094
▁별로	-8.42308
▁건지	-8.42399
▁못해	-8.42416
▁많	-8.42566
▁사랑할	-8.42891
들은	-8.43095
겠다	-8.43124
란	-8.43196
▁좋아하	-8.43253
▁없나	-8.4328
▁간	-8.43818
▁아픔	-8.43857
한데	-8.44035
▁짝사랑하는	-8.44248
▁7	-8.44632
▁비밀	-8.44667
▁저녁	-8.44683
▁함께	-8.44687
▁원래	-8.44723
▁답장	-8.44731
전에	-8.44763
▁만났는데	-8.44836
▁어쩌지	-8.44853
▁뭔지	-8.44937
▁걱정	-8.45172
연	-8.45272
돈	-8.45387
▁조언	-8.45442
▁뭐하지	-8.45471
ᅲᅲ	-8.45627
▁편	-8.45692
하던	-8.46053
▁없는데	-8.46061
▁사랑하는데	-8.46082
▁이해	-8.46101
▁안와	-8.46109
면서	-8.46155
▁나이	-8.46575
▁잠이	-8.46666
보고	-8.46834
▁받	-8.47017
▁모르	-8.47296
▁괜찮아	-8.47416
▁없이	-8.47873
▁예뻐	-8.48046
▁재미	-8.484
▁카페	-8.4862
▁떠	-8.48635
▁되고	-8.48667
리는	-8.48931
▁사랑하면	-8.49387
▁따라	-8.4972
▁번호	-8.49812
▁척	-8.49896
▁되	-8.50084
▁여	-8.50766
든	-8.50942
워	-8.51168
간	-8.51186
됐어	-8.51295
▁외로워	-8.51418
대한	-8.51617
▁키	-8.51645
▁시켜	-8.51659
림	-8.51669
엔	-8.51717
▁대학	-8.51813
▁군대	-8.51823
▁미친	-8.51826
▁느려	-8.51827
▁버스	-8.5183
▁집안일	-8.51848
▁벌	-8.51876
▁걱정돼	-8.51879
▁어떡하지	-8.51923
▁이상한	-8.51945
력	-8.51963
용	-8.51963
▁기대	-8.52124
▁꿨어	-8.52134
▁생각할	-8.52156
▁기다려	-8.52467
살	-8.52502
▁않네	-8.52578
▁보러	-8.52623
▁커플	-8.527
▁사는	-8.52821
▁됨	-8.53046
▁했습니다	-8.5322
▁한번	-8.53319
▁조	-8.53371
지고	-8.53658
▁구	-8.53694
▁동거	-8.53711
▁욕	-8.53723
방	-8.53886
▁왔다	-8.5407
▁않은	-8.54195
▁따	-8.54338
인가봐	-8.54381
난	-8.54386
▁차단	-8.54482
▁왔는데	-8.54665
▁결혼식	-8.54754
같은	-8.5476
▁미워	-8.55247
▁그런	-8.55383
▁이별이	-8.55504
▁복	-8.5553
▁시	-8.55779
▁떠나	-8.55969
▁그녀가	-8.56008
▁못하는	-8.56081
▁자신	-8.56348
▁스	-8.56396
▁하기	-8.56426
▁용	-8.56491
한다	-8.5695
가서	-8.57201
▁인사	-8.57355
감	-8.57472
사람을	-8.57526
▁생각나네	-8.5755
▁차이	-8.57713
▁사귀는	-8.5772
▁이별의	-8.57874
▁받는	-8.57879
▁잊고	-8.58167
▁감	-8.58276
▁생일	-8.58712
▁선	-8.58778
▁장난	-8.59112
▁바	-8.59117
락	-8.59256
▁쓰레기	-8.59257
▁친구들	-8.59405
▁신혼	-8.59501
▁종교	-8.59504
▁행동	-8.59505
▁결정	-8.59513
▁추워	-8.59532
▁연예인	-8.59534
▁떠난	-8.59569
▁두려워	-8.5959
▁상사	-8.59629
▁샀어	-8.59643
▁맞	-8.5967
▁헤어졌는데	-8.59708
▁떨어졌어	-8.59713
▁인기	-8.59741
▁8	-8.5988
▁해줘	-8.59917
준	-8.59921
▁식	-8.60034
중	-8.60037
스	-8.60082
▁주말	-8.60243
▁번	-8.60249
▁먹을까	-8.60275
▁별	-8.60327
▁속이	-8.60356
▁사랑해서	-8.60452
▁피곤해	-8.6046
양	-8.60506
▁긴	-8.60725
▁없으면	-8.60964
▁환승	-8.60967
▁초	-8.61051
쳐	-8.61158
▁곳	-8.61224
▁타는데	-8.61233
▁온	-8.61403
▁깨	-8.61593
▁바보	-8.61746
된	-8.61871
▁연	-8.62339
기로	-8.62443
▁나쁜	-8.62475
▁이거	-8.62595
▁잘하고	-8.62801
할텐데	-8.62846
가슴이	-8.62929
▁현실	-8.63088
년이	-8.63185
친한	-8.63269
▁보여	-8.633
▁이상	-8.63311
▁생	-8.63443
잡고	-8.63465
▁가족	-8.6349
▁늦	-8.64508
▁치	-8.65395
▁호감	-8.65659
▁그사람	-8.65896
▁사랑하고	-8.66132
▁거야	-8.66204
▁잡	-8.66461
른	-8.66721
▁상황	-8.67082
있는	-8.67093
▁연인	-8.67269
▁싸우	-8.67279
보	-8.67677
▁걔	-8.67743
링	-8.67743
▁졸업	-8.67798
▁우산	-8.67834
▁언제쯤	-8.67872
▁가끔	-8.67877
▁오랜만에	-8.67905
▁자격	-8.68035
▁그리워	-8.68067
▁있겠지	-8.681
줄까	-8.68139
▁이번	-8.68186
▁보고싶다	-8.68269
말	-8.68364
▁크리스마스	-8.68391
▁안됐는데	-8.68416
왔어	-8.68424
▁헤어지자고	-8.68468
▁의심	-8.6854
▁쓰	-8.68615
됐는데	-8.68623
▁나왔어	-8.68634
싶어	-8.68746
▁일어나	-8.68768
▁장거리	-8.68839
▁가지	-8.69139
▁아는데	-8.69431
▁꿈에서	-8.69434
▁했으면	-8.6958
▁붙잡고	-8.69609
크	-8.69695
▁계	-8.69853
▁발	-8.69913
▁뭐라	-8.69975
▁사랑에	-8.70033
▁편하	-8.70472
찍	-8.70628
새	-8.70665
▁웃	-8.70814
만큼	-8.70888
까봐	-8.71011
▁포기	-8.71075
▁싶지	-8.71123
지는	-8.71132
▁사람에	-8.71166
▁뒤	-8.71193
▁상	-8.71201
▁해야지	-8.71294
▁출근	-8.71517
▁유	-8.71557
▁더워	-8.71597
▁만들어	-8.72103
▁알고	-8.72213
▁맘에	-8.72544
▁보면	-8.72736
▁위로	-8.72785
▁진심	-8.73475
▁듣	-8.7387
렸어	-8.74147
▁헤어져야	-8.74661
▁썸인	-8.74703
▁사야	-8.74705
▁상대	-8.75024
▁사고	-8.75077
▁끝내	-8.75078
치고	-8.75331
▁눈에	-8.75429
▁일주일	-8.7545
▁아는	-8.75474
잠을	-8.75549
▁끝이	-8.75653
▁귀찮	-8.76122
하려고	-8.76188
▁말해	-8.76233
▁만들	-8.76273
▁찍	-8.76454
칠	-8.76509
▁쓰는	-8.76523
짐	-8.76547
이란	-8.76602
맥	-8.7681
량	-8.76832
토	-8.76833
▁넌	-8.76834
▁인형	-8.76844
었는데	-8.76853
▁날이	-8.76895
▁권태기	-8.76933
▁잠수	-8.76937
▁눈치	-8.76945
▁함	-8.76947
▁이별통보	-8.76964
▁행복	-8.76978
좀	-8.76996
▁집들이	-8.77083
▁힘들겠지	-8.7709
▁대화	-8.77135
▁신경	-8.77178
▁아니야	-8.77248
▁환승이별	-8.77364
▁지났네	-8.77376
▁하늘	-8.77491
▁미세먼지	-8.775
▁두번	-8.77504
▁귀	-8.77539
▁좋겠지	-8.77773
▁소개	-8.77898
▁쇼핑	-8.78021
▁드는	-8.7806
박	-8.78068
▁됐으면	-8.7811
▁싶네	-8.78119
▁될까요	-8.78299
▁말까	-8.7839
▁찾아	-8.78395
거려	-8.78457
러워	-8.78469
듯이	-8.78538
하나	-8.78891
▁힘들어서	-8.78902
혼자	-8.79072
▁한달이	-8.79121
▁드네	-8.79135
▁챙겨	-8.79306
2	-8.79635
재	-8.79666
약	-8.79723
드	-8.79885
▁사랑한다	-8.79907
줬어	-8.80061
갑	-8.80104
끼	-8.80171
▁놓	-8.80269
달째	-8.80316
학	-8.80321
동	-8.80355
▁힘	-8.80499
ᄏ	-8.80516
줬으면	-8.80524
▁죽	-8.80567
티	-8.80788
산	-8.80869
▁고	-8.81011
▁써	-8.81198
▁같	-8.81278
지네	-8.81592
▁키우	-8.81664
▁과	-8.81777
▁학	-8.81953
▁갔다	-8.82108
▁심	-8.82392
▁들	-8.82445
구나	-8.82575
▁했	-8.82896
▁클럽	-8.83271
▁있네	-8.83596
▁중에	-8.84165
▁먹는	-8.84352
인듯	-8.8439
▁이사	-8.84449
▁오는	-8.84499
할때	-8.84545
▁않	-8.84911
▁극복	-8.85206
▁ᅲ	-8.85216
▁이혼	-8.85575
▁멋	-8.85775
▁보이	-8.86017
▁절	-8.86032
오	-8.86471
▁생각나는	-8.865
▁예쁜	-8.86654
▁끊	-8.86707
▁공무원	-8.86833
▁기념일	-8.86833
▁선생님	-8.86833
▁휴대폰	-8.86833
▁귀여워	-8.86835
▁배고파	-8.86843
▁스키	-8.86844
▁소	-8.86853
▁축구	-8.86871
에는	-8.86888
▁얘기	-8.8695
▁말고	-8.86984
▁맞는걸까	-8.86992
▁막말	-8.87003
▁마주치	-8.87054
▁고백했는데	-8.87109
▁끝난	-8.87135
▁통보	-8.87158
▁일상	-8.87168
▁짧은	-8.87204
보여	-8.87229
▁있나요	-8.87258
▁최고	-8.8728
▁많은데	-8.87292
▁집중	-8.87301
▁이건	-8.87371
▁9	-8.874
▁답답해	-8.87408
▁관리	-8.87517
▁먼지	-8.87697
▁됐네	-8.87708
▁누가	-8.87739
▁만나기로	-8.87747
▁해서	-8.87752
▁거의	-8.8789
▁힘들게	-8.87988
▁설	-8.87992
▁물어봐	-8.87992
▁나온	-8.88068
▁어디서	-8.88126
▁되면	-8.88222
▁노래방	-8.88229
▁라면	-8.88315
▁가져	-8.88357
▁남사친이	-8.88368
며	-8.88568
▁쉬운	-8.88927
▁먹으면	-8.89133
도시	-8.8918
법	-8.89424
▁정신	-8.89502
▁영	-8.89708
▁고민이	-8.89906
▁우울	-8.8997
저	-8.90067
▁회식	-8.90386
▁선톡	-8.90425
▁아이	-8.9046
머리	-8.90513
폰	-8.90629
▁정리가	-8.90737
행	-8.9084
▁쉽지	-8.90991
▁진급	-8.91269
▁중인	-8.91299
▁재밌	-8.91335
따라	-8.9136
되는	-8.91449
매	-8.91572
▁데	-8.91728
병	-8.91974
성	-8.9209
▁싫은	-8.92182
▁방학	-8.92192
염	-8.92267
호	-8.92458
소	-8.92636
▁장	-8.92651
여행	-8.92743
▁세	-8.9301
▁재	-8.93119
▁남자랑	-8.93143
년간	-8.93174
회	-8.93252
남자	-8.9344
▁있고	-8.93942
▁썸이	-8.94042
▁하네	-8.94094
사람	-8.94163
▁최악	-8.94541
▁인연	-8.94956
녀	-8.9528
가봐	-8.95344
으	-8.9584
▁않는	-8.9588
▁나을까	-8.95905
▁냄새	-8.96006
▁만나면	-8.96165
혀	-8.96245
▁속	-8.96434
▁습관	-8.96514
료	-8.96631
▁당	-8.96634
▁꿈이	-8.96771
▁팔	-8.96996
▁나오	-8.97067
▁지쳐	-8.97068
▁여자들	-8.97218
▁사귄	-8.97414
▁어렵	-8.9758
릴	-8.97642
▁추억	-8.97652
▁역시	-8.97662
어도	-8.97682
▁큰	-8.97808
별	-8.97864
땐	-8.97945
▁SNS	-8.97945
▁드라마	-8.97945
▁빼빼로	-8.97945
▁청첩장	-8.97945
▁질투	-8.97946
▁적응	-8.97948
▁바빠	-8.97953
▁대출	-8.97958
▁시계	-8.97958
▁하루하루	-8.97961
▁떨어져	-8.97973
▁사업	-8.97987
▁되었습니다	-8.97992
▁피부	-8.98026
▁누군가	-8.98037
▁어린	-8.98054
▁아빠	-8.98124
▁제발	-8.98133
▁몰라	-8.98265
▁믿	-8.98423
▁싶	-8.98438
▁과거	-8.9848
▁말해볼까	-8.98482
▁잊어	-8.98492
▁고백해도	-8.98494
▁도와줘	-8.98511
▁성적	-8.98566
▁아프다	-8.98707
▁힘듭니다	-8.98711
▁이러지	-8.98765
▁이상형	-8.98814
▁회사에서	-8.9886
▁돌	-8.98953
▁헤어졌네	-8.98978
▁마셔야	-8.99031
▁결혼하면	-8.9906
세	-8.99106
▁물어보	-8.99219
▁감기	-8.99277
애	-8.99286
▁연락하면	-8.993
▁아닌지	-8.99308
▁여자친구에게	-8.99311
▁빼	-8.99362
▁어	-8.99397
▁잘해줘	-8.99412
▁잊을	-8.99419
▁놀고	-8.99537
막혀	-8.99609
▁먹었	-8.99825
시간	-8.99891
▁달라	-8.99918
▁문득	-9.00105
▁모습	-9.00119
▁온다	-9.00214
▁느낌이	-9.00218
▁상담	-9.00243
▁여사친이	-9.00252
형	-9.00332
▁위	-9.00337
▁오네	-9.00524
았어	-9.00595
▁교회	-9.0072
▁잘해	-9.00819
▁다리	-9.00827
▁선배	-9.00859
▁들어와	-9.00979
▁우울해	-9.01138
▁사랑하	-9.01179
했네	-9.01509
이라는	-9.01531
▁울	-9.01557
▁해야할까	-9.01573
▁수도	-9.01673
▁사람과	-9.01775
바	-9.01855
고싶어	-9.02332
문	-9.02414
▁앞에	-9.02539
▁작	-9.02588
다는	-9.0261
▁왔네	-9.02717
▁모르겠	-9.02881
▁없을까	-9.02953
년의	-9.03183
▁빠	-9.03224
거같아	-9.03263
▁종	-9.03379
▁생겼네	-9.03679
피	-9.03829
번호	-9.03835
르	-9.03891
▁가는데	-9.03937
▁잊	-9.04077
숙	-9.04177
▁놀러	-9.04405
▁썸타	-9.04472
종	-9.04622
▁몰	-9.04643
기만	-9.04687
▁살아야	-9.04812
▁커	-9.05178
할까요	-9.05333
생활	-9.05373
▁혼	-9.05375
▁일을	-9.05463
였어	-9.05525
▁있을	-9.05774
▁한다	-9.05808
▁타다	-9.0594
▁준	-9.06131
달라고	-9.06138
▁차별	-9.06376
▁올	-9.06759
▁지나	-9.06846
▁야근	-9.06954
▁몰랐	-9.06999
▁싫	-9.07338
▁읽	-9.0743
▁학원	-9.07492
▁거지	-9.07611
▁취직	-9.07722
봤는데	-9.08061
▁ᅲᅲ	-9.08508
▁길어	-9.08954
▁가능할까	-9.09149
▁헤어지자	-9.09281
▁안하는	-9.0953
▁잊어야	-9.09554
스럽	-9.09586
▁춥	-9.09604
▁인	-9.0964
▁주말이	-9.09863
▁방	-9.09889
▁불	-9.09962
▁짧	-9.09977
▁확실	-9.10135
건지	-9.10234
▁결혼하	-9.10411
▁오랫	-9.10444
▁다이어트	-9.10445
▁딴	-9.10445
▁메뉴	-9.10445
▁사귈	-9.10445
▁삼겹살	-9.10445
뻑	-9.10445
왤	-9.10445
▁까먹었다	-9.10448
▁페북	-9.10448
▁언니	-9.1045
▁아까워	-9.10454
▁인턴	-9.1046
▁화장실	-9.10471
▁싸워	-9.10492
▁불편해	-9.10527
▁슬프	-9.10535
▁가자	-9.10589
▁좋았는데	-9.1059
▁확신	-9.10599
▁여러	-9.10635
와서	-9.1065
▁영원	-9.10658
▁생겼으면	-9.10668
▁결심	-9.10675
▁좋아해주는	-9.10682
▁허리	-9.10695
▁이름	-9.10697
▁끝났어	-9.10714
▁싶습니다	-9.10734
▁중국어	-9.10771
▁파도	-9.10828
▁안되겠지	-9.10844
▁잊혀지	-9.10844
▁생각했는데	-9.10852
▁인정받	-9.10926
▁느낌이야	-9.10936
▁안되네	-9.11003
▁않는데	-9.11086
▁너에게	-9.11097
▁슬퍼	-9.1112
▁널	-9.1112
▁미치겠	-9.1114
▁주말에	-9.11187
▁희망	-9.11203
▁sns	-9.11245
▁시어머니	-9.1127
▁전공	-9.11297
▁그럴까	-9.11341
▁부분	-9.11383
▁잤어	-9.1139
▁맞을까	-9.11563
할거야	-9.1172
고싶은데	-9.1174
▁잡아	-9.11771
개월째	-9.11787
타	-9.11828
▁변하	-9.11869
▁패	-9.11991
▁속에	-9.12098
메	-9.12184
▁왔으면	-9.12215
▁순간	-9.12235
▁들었어	-9.12283
▁회사에	-9.12288
야돼	-9.1237
하러	-9.12377
주고	-9.12407
▁취업	-9.12425
▁올려	-9.12432
▁놀러가고	-9.12493
▁뭐할까	-9.12597
▁베	-9.12679
▁실	-9.1269
▁퇴근	-9.12738
▁왔습니다	-9.12892
▁동물	-9.12962
▁이해가	-9.12963
▁올해	-9.13031
▁전남친이	-9.13041
▁당했어	-9.13056
▁변	-9.13061
▁니	-9.13247
▁봄이	-9.13272
▁받았	-9.13325
▁해야겠다	-9.13353
▁싸웠	-9.13406
▁감정이	-9.13425
▁봤어	-9.1346
하다가	-9.13478
▁여자친구한테	-9.13553
▁옴	-9.13571
▁친구로	-9.13675
▁안녕	-9.13683
▁여기	-9.13941
▁해야할지	-9.13972
아지	-9.14088
▁보기	-9.1421
▁망	-9.14221
▁애들	-9.14326
레	-9.14329
▁진	-9.14353
이면	-9.14419
반	-9.14467
▁먹어	-9.14619
▁보지	-9.1466
▁휴가	-9.14721
오네	-9.14763
▁아기	-9.14827
▁썸인가	-9.1487
는건	-9.14928
▁못하고	-9.15163
▁카드	-9.15207
▁말하는	-9.15292
▁안되	-9.15447
▁없을	-9.15509
▁평생	-9.15544
▁문신	-9.15575
▁연락하는	-9.15615
하니	-9.1602
▁싶어요	-9.16033
▁버	-9.16075
▁놓고	-9.16581
체	-9.16652
유	-9.16679
▁연락해	-9.16704
울	-9.16827
했다	-9.17339
밖에	-9.17424
낼	-9.176
각	-9.17693
공	-9.17725
될까	-9.17775
코	-9.17891
??	-9.17935
작	-9.17958
덧	-9.18034
4	-9.1807
▁달라고	-9.18257
글	-9.1829
김	-9.18602
었으면	-9.1868
▁원	-9.1947
▁쉽	-9.19696
▁덜	-9.19768
▁좋아하는거	-9.19779
추	-9.19891
▁생각만	-9.2006
간다	-9.2014
결	-9.209
▁떨	-9.21253
▁뻔	-9.21285
▁노	-9.21315
▁걷	-9.21341
▁여행가	-9.21485
▁성공	-9.21512
▁접	-9.21586
었습니다	-9.21633
▁썼	-9.21736
▁살아	-9.22326
▁싫어하는	-9.22736
▁같다	-9.22872
▁공부하	-9.22923
터	-9.22929
▁붙	-9.23118
이별	-9.23207
▁맛	-9.23312
거나	-9.23448
▁좋아할	-9.23696
▁남편	-9.23737
름	-9.23767
나보다	-9.23853
나요	-9.24228
플	-9.24313
꺼	-9.24475
▁자고	-9.24507
▁삼	-9.24553
님	-9.24598
▁문	-9.24605
▁파혼	-9.2461
언	-9.24666
션	-9.24666
다니	-9.24695
▁택시	-9.24698
테	-9.24718
▁셀카	-9.2473
▁여드름	-9.2473
▁찔	-9.2473
닉	-9.2473
탕	-9.2473
▁분위기	-9.24732
▁통화	-9.24734
▁명절	-9.24734
▁제주도	-9.24735
▁업무	-9.24738
▁에휴	-9.24738
▁발목	-9.24739
▁단둘이	-9.24746
▁생겨	-9.24754
▁차가워	-9.24755
▁느껴져	-9.24773
▁여름	-9.24773
▁어떨까	-9.24778
▁동성	-9.24779
▁건조	-9.24779
▁자신감	-9.24784
▁불러	-9.24786
▁15	-9.248
▁기준	-9.24844
▁점심	-9.24863
▁같습니다	-9.24907
줬는데	-9.24932
▁슬픈	-9.24954
▁답답하네	-9.24954
▁과일	-9.24979
▁소화	-9.24986
▁일어났	-9.25012
▁인상	-9.2503
느라	-9.25056
▁미	-9.25113
일차	-9.25164
▁어찌	-9.25315
▁그녀에게	-9.25414
▁성격이	-9.25463
▁능력	-9.25574
▁정류장	-9.25618
▁나가기	-9.25624
▁말투	-9.2563
▁올라	-9.25664
▁참견	-9.25791
▁말아야	-9.25795
▁교	-9.25894
▁위해	-9.25941
▁둘	-9.25945
▁안되는데	-9.2599
▁헤어질	-9.26025
▁바꾸	-9.2612
▁생각할까	-9.26293
분	-9.2639
▁알았어	-9.26457
바이	-9.26518
▁갔	-9.26532
▁애기	-9.26603
▁놈	-9.27051
▁기간	-9.27068
▁선택	-9.27122
▁숨	-9.27134
▁있을까요	-9.27171
▁입지	-9.27491
▁싸움	-9.2755
했지만	-9.27558
나서	-9.27687
▁성	-9.27688
▁데려다	-9.278
있어	-9.27832
▁물어	-9.27874
▁명	-9.27877
▁반대	-9.2808
▁이러	-9.28084
▁분	-9.28222
왔는데	-9.28659
▁처음에	-9.28704
중에	-9.28936
▁남자한테	-9.2907
야하나	-9.29238
▁헤어지면	-9.29312
답	-9.29673
▁노는	-9.29743
▁짓	-9.29853
▁독	-9.29892
▁공	-9.30254
갔어	-9.30354
~~	-9.30489
▁살지	-9.30545
▁지나가	-9.30765
되는데	-9.30807
복	-9.30935
▁겨	-9.31094
한대	-9.31219
또	-9.31416
해주는	-9.31551
▁방학이	-9.31986
남	-9.31988
▁한거	-9.32
▁잘되	-9.32194
▁사람인데	-9.32413
▁죽고	-9.3244
하고싶어	-9.32523
▁이별하고	-9.32533
라는	-9.32619
하는거	-9.32808
▁힘들지	-9.32861
▁그만하고	-9.32894
▁비가	-9.32991
▁병	-9.33048
진다	-9.33234
▁도서관	-9.33267
▁본	-9.33426
▁준비하	-9.33515
▁며	-9.33593
강	-9.33687
▁없어서	-9.3389
콜	-9.3441
놈	-9.34584
▁받을	-9.347
관계	-9.347
▁보니	-9.34706
놓고	-9.34724
영	-9.35139
청	-9.3536
외	-9.35603
카드	-9.35612
예	-9.35954
▁줄까	-9.36316
받았어	-9.36367
들에게	-9.36594
었나봐	-9.36682
제가	-9.3672
▁괜찮	-9.36802
▁헬스장에	-9.3682
야할까	-9.37072
려나	-9.37254
▁무너	-9.3734
▁몇일	-9.37342
▁편해	-9.37377
▁공부해야	-9.37379
너무	-9.37382
인거	-9.37459
▁없지	-9.37476
▁세상에	-9.38188
보내는	-9.38328
▁공시	-9.38488
하죠	-9.38548
▁재미없	-9.38634
▁헤어져	-9.38842
▁대해	-9.38913
▁얼	-9.38952
▁뭔	-9.3938
▁헤어지는	-9.39473
▁짱	-9.39666
했	-9.39711
▁틀	-9.39838
르고	-9.39846
▁밖에	-9.3991
인걸까	-9.39934
▁이상형이	-9.40119
▁풀	-9.40602
▁최	-9.40604
맘이	-9.40721
▁짜증	-9.40723
▁이어	-9.40745
▁돌아오	-9.40803
▁일하는	-9.409
▁탔	-9.40906
▁사이에	-9.40951
▁오랜	-9.40979
▁축	-9.4102
▁샀	-9.41078
▁운명	-9.41094
▁생긴	-9.41231
쯤	-9.41281
움	-9.41294
정규직	-9.41326
턴	-9.41376
▁무서운	-9.4138
보는	-9.41389
▁기프트콘	-9.41397
▁낚시	-9.41397
▁눈썹	-9.41397
▁벚꽃	-9.41397
▁보이스피싱	-9.41397
▁비싼	-9.41397
▁설렘	-9.41397
▁어젯밤	-9.41397
▁지겨워	-9.41397
▁체육대회	-9.41397
▁택배	-9.41397
▁화이트데이	-9.41397
잖아	-9.41397
즈	-9.41397
팸	-9.41397
▁생리통	-9.41397
▁스타트업	-9.41397
▁스터디	-9.41397
▁악몽	-9.41397
▁셀프웨딩	-9.41398
▁외로움	-9.41399
▁무기력	-9.41401
▁그리움	-9.41403
▁낫겠지	-9.41403
▁누굴	-9.41403
▁최근	-9.41406
▁표정	-9.41407
▁목소리	-9.41408
▁천재	-9.41408
▁외국인	-9.41413
▁의욕	-9.41418
▁교양	-9.41419
▁조카	-9.41419
▁놀아줘	-9.4142
▁음식	-9.4142
▁딸기	-9.41426
▁스테	-9.41429
▁우연히	-9.4143
▁고맙다	-9.41432
▁잃어버	-9.41434
▁택시비	-9.41435
▁현금	-9.41438
았는데	-9.41441
▁않았으면	-9.41446
▁시간표	-9.41448
▁어플	-9.41451
▁기회	-9.41495
▁추천해줘	-9.41496
▁소심해	-9.41507
▁끝났으면	-9.41512
▁중요한	-9.41514
테리	-9.41515
예요	-9.4154
▁아님	-9.4155
▁부담	-9.41552
▁마셔	-9.41574
▁한강	-9.41594
▁미안해	-9.41617
▁이별했습니다	-9.4164
▁행복할까	-9.41642
▁넘었네	-9.41651
▁더러워	-9.41705
▁수영	-9.41722
▁째	-9.41777
▁없겠지	-9.41786
▁반장	-9.4196
▁별로야	-9.41982
▁그동안	-9.41993
▁먹었는데	-9.42
▁자취	-9.42041
▁만나러	-9.42117
▁예의	-9.42134
▁먹으	-9.42138
▁장소	-9.42187
▁연휴	-9.42219
▁있대	-9.42235
▁곧	-9.42267
▁있다	-9.42268
났어	-9.42271
▁인간	-9.42297
▁취미	-9.42333
▁동생이	-9.42354
▁성형	-9.42377
▁공개	-9.42392
▁베터리	-9.42412
▁알면서도	-9.42452
▁그대로	-9.4251
▁이불	-9.4255
▁기다렸	-9.42659
▁착한	-9.42668
▁힘든데	-9.42705
▁많다	-9.42708
▁한잔	-9.42767
▁언제까지	-9.42804
▁사수	-9.42837
▁갔는데	-9.42862
▁배우	-9.42878
▁심장	-9.43055
▁통해	-9.4313
개월이	-9.43133
▁언젠가	-9.43151
▁늦은	-9.43225
▁출	-9.43227
▁태	-9.43237
▁친해지는	-9.43309
▁부담스러워	-9.43525
었	-9.43538
▁외	-9.43568
▁찬	-9.43695
▁말라고	-9.43697
▁까먹	-9.43763
▁꿀	-9.43815
▁심리	-9.43816
▁헤어졌	-9.43848
▁재밌다	-9.43865
▁바꿀까	-9.43905
▁끝났네	-9.43941
▁바다	-9.43964
▁떨어지	-9.43967
▁바꿔야	-9.44037
▁보낼	-9.44279
▁되겠지	-9.44282
카	-9.44289
▁여자와	-9.4434
망했어	-9.44364
▁맞아	-9.44454
냐고	-9.44538
▁찍어	-9.44679
▁내려	-9.44727
▁행복한	-9.44903
▁기다리는	-9.4492
▁미안	-9.44944
▁주세요	-9.45004
▁붙잡	-9.4507
▁쉬는	-9.45152
건데	-9.45301
▁준비중	-9.45411
주는	-9.4545
▁놔	-9.45686
▁절대	-9.45705
▁받아야	-9.45837
여자	-9.46025
▁보게	-9.46035
▁사내	-9.4619
척	-9.46195
▁산	-9.46199
▁동생	-9.46244
했나봐	-9.46272
▁생각에	-9.46291
▁올까	-9.4644
▁찾아오	-9.46443
봐야지	-9.4658
라는게	-9.46756
▁적극적	-9.46843
▁지하철에	-9.46864
다보니	-9.46891
▁늦어	-9.47083
▁카	-9.47227
▁놓아	-9.47427
▁들을	-9.47464
기면	-9.47571
다니는	-9.47635
▁연애하고	-9.47663
▁어장인	-9.47677
버렸어	-9.47745
▁배워	-9.47783
▁궁금	-9.4788
나면	-9.48071
이지	-9.48192
▁이기적인	-9.48209
근	-9.48217
▁오면	-9.48237
▁같아요	-9.48296
으려면	-9.48332
▁입어	-9.48584
▁잡았	-9.48654
▁걸어	-9.48669
▁실수한	-9.48731
없어	-9.48761
▁고고	-9.48763
만한	-9.48822
▁돌아	-9.48998
▁뜨	-9.48998
▁생일이	-9.4947
▁있으니	-9.49488
▁이직	-9.49623
▁마주	-9.49662
▁잊기	-9.4996
받고	-9.50157
이래	-9.50289
▁낼	-9.50388
너	-9.50523
졌으면	-9.50526
▁무시하	-9.5078
▁뭐하는	-9.5101
▁착각	-9.51503
백	-9.51553
▁했다	-9.51702
야겠지	-9.51746
안	-9.51813
개	-9.51852
월	-9.52387
해주고	-9.52516
▁크	-9.52556
▁건강	-9.52671
▁놀이	-9.52685
▁잘해주는	-9.52711
데이트	-9.52765
겨	-9.52836
라니	-9.52911
▁끝인가	-9.53015
갈	-9.53084
3	-9.53168
북	-9.53223
넘	-9.53292
망	-9.53344
▁잊는	-9.53543
▁생각하면	-9.5356
잡는	-9.53561
▁바라는	-9.53604
조	-9.54007
▁부자	-9.54009
밥	-9.54155
▁만큼	-9.54233
▁양	-9.54276
▁마셨	-9.54283
▁사랑한	-9.54295
▁재밌는	-9.543
▁그렇	-9.54378
▁답답	-9.54395
짓	-9.5442
창	-9.54615
▁첫사랑이	-9.54616
겁	-9.54731
▁시작해	-9.54966
▁바쁘	-9.54983
위	-9.55017
이라니	-9.55152
▁끝났	-9.55324
끝에	-9.55377
기도	-9.55392
해요	-9.55451
▁멍	-9.55455
이었으면	-9.55468
순	-9.55542
미	-9.55606
▁무시	-9.55729
▁초대	-9.55806
거리	-9.5581
허	-9.55922
▁운명이	-9.56041
▁일년	-9.56113
시간이	-9.5634
번호를	-9.56583
▁스타일	-9.56634
▁참다	-9.56691
▁착	-9.56925
관	-9.56989
▁맞나	-9.57091
이렇게	-9.57162
달이	-9.57254
게임	-9.57564
▁창업	-9.57858
▁인정	-9.58054
▁면도	-9.58109
▁술마시	-9.58254
▁누	-9.58266
▁유학	-9.58375
▁샤워	-9.58396
▁만났	-9.5868
▁못하	-9.58918
▁맞춰	-9.59106
▁언젠	-9.59297
▁이럴	-9.59329
▁고백하는	-9.59334
▁오늘이	-9.59404
인건가	-9.59438
▁개강	-9.59712
▁말도	-9.59767
▁심심	-9.59808
▁평	-9.59884
줘야	-9.59893
주가	-9.60094
록	-9.60165
▁먼	-9.60243
▁성격	-9.60353
▁이성	-9.60479
▁점심시간	-9.60868
민	-9.60868
웠	-9.60872
▁헷갈리	-9.61023
▁발렌타인데이	-9.61192
표	-9.6126
하지만	-9.61326
▁현	-9.61337
렇게	-9.61354
릿	-9.61393
값	-9.61396
▁철	-9.61396
▁땡	-9.61397
▁땀	-9.61397
▁휘	-9.61397
▁구멍	-9.61397
▁긁었어	-9.61397
▁뒷	-9.61397
▁뒷담화	-9.61397
▁띄	-9.61397
▁리폼	-9.61397
▁왠	-9.61397
▁유부남	-9.61397
▁이벤트	-9.61397
▁자괴감	-9.61397
▁찼	-9.61397
▁층간소음	-9.61397
▁컴퓨터	-9.61397
▁특징	-9.61397
눅	-9.61397
딩	-9.61397
론	-9.61397
쫌	-9.61397
찐	-9.61397
▁도대체	-9.61397
▁봉사활동	-9.61397
다툼	-9.61397
▁냉장고	-9.61397
▁몸무게	-9.61397
▁쌩얼	-9.61397
▁혹시	-9.61398
▁편의점	-9.61398
▁염색	-9.61398
▁맞춤법	-9.61399
▁추석	-9.61399
▁무거워	-9.614
▁컴터	-9.61401
▁농담	-9.61401
▁필름	-9.61406
▁의견	-9.61408
▁늦잠	-9.61409
▁혼술	-9.61409
▁흔적	-9.6141
▁군인	-9.61411
▁찾아온	-9.61412
▁기다릴	-9.61414
▁기다림	-9.61415
▁화장품	-9.61418
▁웃겨	-9.61422
▁서류에서	-9.61426
▁버티	-9.61427
▁자유	-9.61434
▁신경쓰여	-9.61435
▁향수	-9.61435
▁맛집	-9.61436
▁망했다	-9.61439
▁지루	-9.61441
▁마무리	-9.61446
▁먹어야겠다	-9.61448
▁노후	-9.61449
▁못참고	-9.61451
▁이틀	-9.61456
▁똑같아	-9.61462
▁대체	-9.61465
▁멀리	-9.61469
▁속상해	-9.61475
▁후배	-9.61481
▁나가볼까	-9.61484
▁소원	-9.61487
▁미치겠습니다	-9.61495
▁마실까	-9.61495
▁사겨도	-9.61507
▁한숨만	-9.61538
▁걸릴	-9.6155
▁수업	-9.61581
▁있었으면	-9.61589
▁잊으려고	-9.61625
▁소주	-9.61635
▁애매	-9.61635
▁거절	-9.61711
▁하루에도	-9.61745
▁별거	-9.61754
주째	-9.61759
▁지난	-9.61764
▁전부	-9.61782
라서	-9.6179
▁돌아가고	-9.61795
▁들까	-9.61816
년연애	-9.61852
▁즐	-9.61874
냐구	-9.61903
조차	-9.61909
왔다	-9.61918
▁즐기	-9.61929
담	-9.61936
▁그저	-9.61952
▁친해질	-9.61956
▁미치겠어	-9.61961
▁첫눈	-9.61961
▁사냐	-9.62047
▁느끼는	-9.62049
▁부족한	-9.62125
▁가스	-9.62129
▁재밌어	-9.62139
▁모르겠네	-9.62154
▁나갔어	-9.62181
▁지우고	-9.622
▁예민해	-9.62215
▁떨리	-9.62242
▁해야돼	-9.62258
▁보자고	-9.62306
▁억	-9.62417
▁있었는데	-9.62433
▁칼	-9.62435
▁느껴	-9.62436
▁연락했는데	-9.62464
▁보냈어	-9.62466
▁주택	-9.62534
▁프로필	-9.62555
▁불공평	-9.62586
▁등	-9.62586
▁여유	-9.62607
▁고쳐	-9.627
00	-9.62707
▁작아	-9.6272
▁보고싶네	-9.62743
▁좋아했는데	-9.62801
▁뛰어	-9.62805
▁때려	-9.62851
▁사과	-9.62925
▁견디	-9.62928
▁사랑했던	-9.63041
▁심심해	-9.63055
▁효	-9.63088
▁할줄	-9.6312
▁변한	-9.63158
▁뭐임	-9.63158
▁먹었어	-9.63193
▁새해	-9.63225
보니	-9.6339
▁실수	-9.6342
형이	-9.63445
▁걸려	-9.63453
▁해주는	-9.63476
▁부담스러워할까	-9.63498
아는데도	-9.63583
▁있었어	-9.63618
▁쓰고	-9.63621
▁경우	-9.63647
▁뿌	-9.63693
▁연애하는데	-9.63776
▁빌려	-9.63948
▁얘	-9.6397
▁읽씹	-9.63974
▁옆에	-9.64142
▁놀러가	-9.6423
▁말하지	-9.64286
▁이해해	-9.64329
▁잤	-9.64341
코인	-9.64372
▁탈퇴	-9.64375
▁잘못된	-9.64407
국	-9.64505
▁있지	-9.64527
▁말했어	-9.64533
▁다가가	-9.64764
▁바지	-9.6482
▁떠났	-9.64926
이에요	-9.64949
▁받아들이는	-9.64985
▁좋았	-9.65055
▁힘들고	-9.65132
▁빵	-9.65257
▁포기하는	-9.65504
가는	-9.6552
▁답답한	-9.65569
▁업	-9.65711
▁안하지	-9.65754
▁무시해	-9.65831
▁결혼한	-9.65882
▁많아서	-9.6601
▁울적해	-9.66176
▁나아	-9.66237
▁성공하	-9.66247
타기	-9.66301
▁풀어	-9.66322
버려	-9.66337
▁지우	-9.66403
▁후회할까	-9.66478
▁봅니다	-9.66638
▁있으	-9.66661
▁덕	-9.66691
늘	-9.66709
▁않을까	-9.66752
▁청소	-9.66904
▁이별준비	-9.66934
▁먹지	-9.6694
되었네	-9.66973
▁지내	-9.67099
▁아이돌이	-9.67219
▁잊지	-9.67253
▁ᄒᄒ	-9.67551
▁다가오	-9.67634
▁떡	-9.67944
▁사랑한다는	-9.67978
▁찾	-9.68082
▁좋아하나	-9.6811
할수	-9.68163
▁남아	-9.68545
라이	-9.68694
좋아하는	-9.68781
음이	-9.68862
가고	-9.69118
▁피해	-9.69168
하나봐	-9.694
▁들어왔	-9.6946
▁고통	-9.69614
▁자다가	-9.69618
▁쓴	-9.69684
▁말한	-9.69853
▁가족들	-9.69959
▁생각하	-9.7003
잔	-9.70039
▁잘못인	-9.70047
▁못하겠	-9.70581
▁봐도	-9.70617
▁못할	-9.70872
▁갖자	-9.71201
▁우리집	-9.71221
▁연애하는	-9.71542
▁힘내	-9.71619
▁것이	-9.71737
▁가사	-9.71866
남한테	-9.71944
ᄒᄒ	-9.71952
▁나가야	-9.72038
▁뻔했	-9.72152
▁노력	-9.72282
▁학교에	-9.72307
여자들이	-9.7236
▁소문이	-9.72634
실	-9.72703
리고	-9.72719
▁어떻게해	-9.72908
▁불면증	-9.72923
▁야	-9.72988
▁오해하	-9.73274
▁어떻	-9.73396
▁이상하	-9.73436
▁거라	-9.73566
단	-9.73677
▁내는	-9.74055
되	-9.7412
지지	-9.74128
방법	-9.74303
▁학생	-9.74391
하자	-9.74812
▁배려	-9.74959
한거	-9.75027
가지	-9.75049
버	-9.75513
▁우울하	-9.75709
참	-9.75724
냈어	-9.7589
길게	-9.76121
싶은데	-9.76155
▁혼자서	-9.76205
▁뭐하면	-9.76309
았습니다	-9.76334
▁많지	-9.76393
년만	-9.76395
해야할지	-9.76595
▁웃는	-9.76696
난다	-9.76749
올까	-9.77047
▁나온다	-9.7715
없는	-9.77157
있습니다	-9.77252
키	-9.77311
불	-9.77341
▁났	-9.77385
침	-9.77538
▁하러	-9.77859
주려고	-9.77913
속	-9.78027
깐	-9.78035
경	-9.78072
▁천	-9.78088
써	-9.78272
영상	-9.78579
햇	-9.78676
▁결혼해야	-9.78801
군	-9.78844
▁결혼하고	-9.78913
합	-9.78923
짜	-9.79002
클	-9.79045
폭	-9.79053
▁잠수이별	-9.79151
시키	-9.79329
친	-9.7933
계	-9.79348
우는	-9.79418
페	-9.79505
욕	-9.79523
편지	-9.79533
▁돌리	-9.79583
그래	-9.79586
▁부러	-9.79662
선배	-9.79736
청소	-9.79783
하겠지	-9.79819
안녕	-9.79821
액	-9.79894
판	-9.79905
궁	-9.79929
초	-9.79962
▁이러는	-9.79978
덕	-9.79992
▁왕따	-9.80025
놔	-9.80031
옴	-9.8004
였	-9.80125
▁내려놓	-9.80309
중입니다	-9.80444
▁소식	-9.80537
▁울적	-9.80663
▁확인	-9.80756
▁머릿속	-9.80909
▁여사친	-9.81033
했을까	-9.81395
려구	-9.81577
▁잘못이	-9.8158
▁좋아한다	-9.81643
봤어	-9.82042
▁세달	-9.82084
▁봤	-9.827
▁지켜	-9.82903
▁끝일	-9.82939
▁그러	-9.83053
스러워	-9.83079
▁잘해주	-9.83118
온다	-9.83148
지우	-9.83223
▁해보려	-9.83343
▁믿었	-9.83643
▁고백할	-9.83741
▁든	-9.83859
▁죄	-9.83952
런	-9.84051
왔네	-9.84105
이야기	-9.84248
▁닮	-9.84456
▁다녀	-9.84562
▁괜찮다	-9.84685
있을까	-9.84702
돌	-9.84843
같네	-9.84947
가요	-9.84957
하는걸	-9.85068
▁익숙해	-9.85234
▁씻	-9.85259
물이	-9.8533
▁남자분들	-9.85404
▁어색해	-9.8548
▁죽겠	-9.85582
▁질린	-9.85629
▁무섭	-9.8563
▁고백한	-9.85698
▁어쩌	-9.85796
▁화내	-9.85803
둘이	-9.85869
▁중국	-9.85879
▁필	-9.85981
▁괴롭	-9.86
▁바뀌	-9.86032
▁쳐다	-9.86094
▁위험	-9.86124
습	-9.86164
▁취향	-9.86194
냥	-9.86205
씨	-9.86255
랜	-9.86304
▁어쩔	-9.86314
셔	-9.86317
정도	-9.86338
▁마실	-9.86339
▁미칠	-9.8634
류	-9.86349
렀	-9.86375
뻐	-9.8639
말걸	-9.8639
▁멘	-9.86397
▁꽉	-9.86397
▁얻	-9.86397
B	-9.86397
▁갚	-9.86397
▁결혼적령기	-9.86397
▁그립	-9.86397
▁대기업	-9.86397
▁로맨틱	-9.86397
▁마침표	-9.86397
▁머리카락	-9.86397
▁무릎	-9.86397
▁무한리필	-9.86397
▁보험	-9.86397
▁삶	-9.86397
▁선풍기	-9.86397
▁신뢰	-9.86397
▁싱숭생숭	-9.86397
▁앉	-9.86397
▁알뜰폰	-9.86397
▁애프터	-9.86397
▁옳은	-9.86397
▁유효기간	-9.86397
▁찜질방	-9.86397
▁칭찬	-9.86397
▁트라우마	-9.86397
겟	-9.86397
껄	-9.86397
덥	-9.86397
렵니다	-9.86397
립니다	-9.86397
엠	-9.86397
율	-9.86397
줌	-9.86397
팁	-9.86397
▁A	-9.86397
▁교양수업	-9.86397
▁베트남	-9.86397
▁유부녀	-9.86397
▁의미부여	-9.86397
▁잇몸	-9.86397
▁고시원	-9.86397
▁낭만이	-9.86397
▁어둠	-9.86397
▁충전기	-9.86397
▁비행기	-9.86397
▁첫인상	-9.86397
▁종지부	-9.86397
▁차라리	-9.86398
▁떨어뜨려	-9.86398
▁뱃살	-9.86398
▁골프	-9.86398
▁월요일	-9.86398
▁잊혀질까	-9.86398
▁미용실	-9.86399
▁감정기복	-9.86399
▁손가락	-9.86399
▁관련	-9.86399
▁존중해	-9.86399
▁입냄새	-9.86399
▁당첨	-9.86399
▁떨린다	-9.86399
▁찢어지	-9.864
▁월세	-9.864
▁엄마아빠	-9.864
▁바꿨어	-9.864
▁뉴스	-9.864
▁베프	-9.864
▁고마워	-9.86401
▁육아	-9.86401
▁따뜻	-9.86402
▁분노	-9.86402
▁메모	-9.86403
▁어렸을때	-9.86403
▁넘어가네	-9.86404
▁명품	-9.86405
▁승진	-9.86406
▁주름살	-9.86408
▁보냈습니다	-9.86408
▁외모	-9.86409
▁어떡하죠	-9.86412
▁똑같애	-9.86413
▁친척	-9.86414
▁알바생	-9.86415
▁무뎌	-9.86416
납니다	-9.86417
콜록	-9.86419
▁다녀왔어	-9.8642
▁깎아야	-9.8642
▁쌓여	-9.86421
▁깨달음	-9.86425
▁터질	-9.86425
▁이제서야	-9.86427
▁어떡함	-9.86427
▁최저	-9.86428
▁상관	-9.8643
▁연애세포	-9.86434
▁직전	-9.86435
▁그리운	-9.86436
▁흔들	-9.86436
▁30	-9.86437
▁애교	-9.86437
▁배울까	-9.86438
▁은근	-9.86443
▁상메	-9.86445
▁우린	-9.86448
▁부족해	-9.86457
▁보냈네	-9.86464
▁통장	-9.86465
▁미안하다	-9.8647
▁어울	-9.86473
▁기침	-9.86474
▁정신차리	-9.86483
▁조용	-9.86489
▁한심해	-9.8649
▁구워	-9.86492
▁모으	-9.86504
▁비정규직	-9.86508
▁차였는데	-9.86515
▁심해지는	-9.86519
▁쓸데	-9.8652
▁뜻	-9.86522
▁겁나	-9.86524
▁망함	-9.86526
▁괜찮겠지	-9.86527
▁일요일	-9.86528
▁지웠어	-9.8653
▁맛있다	-9.86536
▁냉면	-9.86537
▁꺼내	-9.8654
▁되려면	-9.86543
▁입학	-9.86543
▁연락처	-9.86544
▁어른	-9.86549
▁방금	-9.86549
▁차갑	-9.86553
▁수능	-9.86555
▁버려	-9.86562
▁맛있어	-9.86563
▁불안해	-9.86567
▁오바	-9.86579
▁필기	-9.86586
▁갑작스	-9.86586
▁끈을	-9.86609
▁지각	-9.86613
▁대우	-9.86616
▁여우	-9.86624
▁전세	-9.86625
비가	-9.8663
▁면도기	-9.86637
▁재미있어	-9.86637
▁숙제	-9.86646
▁부부	-9.86659
▁위험해	-9.86678
▁보란	-9.86679
▁좋아해줬으면	-9.86682
분들	-9.86696
▁그만두	-9.86702
▁말할	-9.86711
▁예전	-9.86715
▁주식	-9.86716
▁연상	-9.86721
▁벗어	-9.86723
▁끊겼어	-9.86742
▁같음	-9.86759
▁돌려	-9.86765
▁12	-9.86808
▁타나	-9.86822
▁기운	-9.86826
▁주제	-9.86834
▁조급해	-9.86864
▁봐주	-9.86874
▁헷갈리네	-9.86878
▁요리	-9.8688
▁끊기	-9.86899
▁멀어지	-9.869
▁원하는	-9.86907
▁흐르	-9.86915
개월차	-9.86931
▁있다면	-9.86939
▁안받아	-9.86997
▁없는걸까	-9.87045
▁가능한가	-9.87055
▁아부	-9.87074
▁놀까	-9.87078
▁운이	-9.87088
▁당한	-9.87095
▁신경쓰	-9.8712
▁점심시간에	-9.8713
▁티내	-9.87134
▁연락왔어	-9.87164
▁힘들까	-9.87187
▁운동화	-9.87202
▁누나	-9.8721
▁저에게	-9.87235
▁있는걸까	-9.87243
▁어렵다	-9.87283
▁코스	-9.87285
▁배우자	-9.87322
▁화가나	-9.87341
▁고장	-9.87354
▁해주세요	-9.87357
▁막힌다	-9.87371
▁꿈같	-9.87407
▁뭐하냐	-9.87418
▁주변에	-9.87432
▁태어나	-9.87441
▁누구야	-9.87445
▁영어	-9.87449
▁나왔네	-9.87457
▁수준	-9.87499
▁헤어지기	-9.87519
▁소중	-9.87554
▁이용	-9.87584
▁후회해	-9.87616
▁아는거	-9.87628
▁센	-9.87636
▁지진	-9.8767
▁쫄	-9.87709
▁손톱이	-9.87718
▁답답하	-9.87725
▁어이없	-9.87747
▁구분	-9.87754
▁상태	-9.87834
▁남자입니다	-9.87896
▁대답	-9.87899
▁축제	-9.87903
▁프로포즈	-9.87914
▁술한잔	-9.87918
주일	-9.87934
▁짜증나네	-9.88032
▁가려고	-9.88038
드리	-9.88059
▁이별이란	-9.88064
▁한약	-9.88131
▁외국어	-9.88143
▁먹기	-9.88161
▁놀아	-9.88191
▁아니네	-9.88199
▁봤네	-9.88201
▁해봤는데	-9.88221
▁건들	-9.88227
▁좋아졌어	-9.88262
▁금	-9.88279
▁상의	-9.88295
오면	-9.88381
▁치매	-9.88392
▁있음	-9.88392
근데	-9.88422
▁좋아지고	-9.88474
▁넘었는데	-9.88492
▁봐서	-9.88514
▁아닌거	-9.88566
리네	-9.8857
보려구	-9.88588
갈수록	-9.88608
▁개강이	-9.88655
▁잊지못	-9.88672
▁반에	-9.8872
▁쓰게	-9.88737
▁것을	-9.88759
탔어	-9.88804
▁오니까	-9.88808
▁비슷한	-9.88859
▁상황을	-9.88882
▁정리하	-9.89017
요일	-9.8903
▁돼요	-9.89031
▁싸우고	-9.89049
▁남자에게	-9.89206
▁예민한	-9.89246
▁맞지	-9.89326
라더니	-9.89345
▁마시면	-9.89362
▁싸울	-9.8939
이럴까	-9.894
▁멀	-9.89426
▁화해	-9.89499
▁푸	-9.89557
▁괜찮아졌	-9.89666
▁미팅	-9.89725
▁않고	-9.89755
▁해줄까	-9.89763
▁해준	-9.89814
▁조건	-9.89848
▁전기	-9.89862
▁나오네	-9.89874
▁속은	-9.89875
▁모두	-9.89884
이크	-9.89884
▁습관이	-9.89939
▁끊겼	-9.89959
▁후련하네	-9.89988
▁연락할까	-9.90013
▁감성	-9.90064
▁양말	-9.90078
▁배신	-9.90134
▁괜찮다가	-9.90166
▁찌	-9.90182
▁믿어	-9.90191
▁찌질한	-9.90209
▁회	-9.90217
▁간대	-9.90236
▁동생한테	-9.90263
▁아니고	-9.90296
▁사랑하기	-9.9038
▁갑니다	-9.90399
▁멋있	-9.90411
▁만족	-9.9042
▁그사람이	-9.9058
준비	-9.90589
▁반년	-9.90606
▁걸렸	-9.90877
▁되어	-9.90933
▁알았	-9.9094
▁나한테만	-9.91004
▁빨	-9.91012
▁하다	-9.91043
▁꺼	-9.91068
▁티나	-9.91124
▁되기	-9.91134
가봅니다	-9.91162
▁그대	-9.91164
▁뿐이	-9.91218
날까	-9.913
▁이유는	-9.91327
▁냄새나	-9.91405
▁답이	-9.915
기에	-9.91535
주지	-9.91677
▁회복	-9.91731
▁그런가	-9.9181
▁표현하는	-9.91875
▁있는거	-9.91909
▁짝사랑만	-9.92149
▁예	-9.92307
▁혼자만	-9.92338
었네	-9.92502
해야할까	-9.92525
해줬어	-9.92625
▁부르	-9.92668
어요	-9.92737
한걸까	-9.92857
지마	-9.92923
▁직	-9.93037
되었는데	-9.93121
▁지치	-9.93208
▁액	-9.93223
▁확인하	-9.93276
▁모른척	-9.93285
▁친구인데	-9.93299
▁판	-9.9332
▁전여친이	-9.9333
▁화나	-9.93397
▁만나기	-9.93488
▁가까	-9.9353
▁뭐하	-9.93531
▁페	-9.93768
▁호감이	-9.93848
이상	-9.93881
▁비오	-9.93905
▁해야겠지	-9.94076
▁몰랐어	-9.94163
연애	-9.94203
▁짜	-9.9425
▁텐데	-9.94291
해야겠지	-9.9456
▁중입니다	-9.94585
▁오지	-9.94716
했던거	-9.94866
았으면	-9.94951
▁들어가	-9.94969
▁예쁘다	-9.95165
▁화가	-9.95245
물	-9.95427
▁노력해	-9.95436
니깐	-9.95516
▁침	-9.95596
▁거겠지	-9.95609
▁인스타	-9.9584
▁마음의	-9.95915
방비	-9.96013
▁빠지	-9.96323
▁얘기해	-9.96404
싶다	-9.96405
▁원망	-9.96543
세요	-9.96553
▁버려야	-9.96675
해줬	-9.9681
까요	-9.9695
▁결혼해	-9.97018
급	-9.9704
▁도와주	-9.97079
▁좋아한다는	-9.97431
친구	-9.97441
▁자리	-9.97514
▁되었	-9.97866
기네	-9.97932
오늘	-9.97991
시려	-9.98014
들어	-9.98253
▁별로인	-9.98655
▁평가	-9.98659
▁하게	-9.98676
좋아	-9.98732
▁뭐해	-9.98941
▁듣고	-9.99022
리가	-9.99047
문이	-9.9914
간의	-9.99205
▁나니	-9.99867
▁중독인	-9.99868
자리	-9.99937
▁지는	-9.99997
무	-10.0001
▁나왔	-10.0009
▁위로해	-10.005
있는데	-10.0064
▁맛있는	-10.0094
겠대	-10.01
▁카페에	-10.0164
당	-10.0166
▁심어	-10.0167
▁죽을거	-10.0176
려주세요	-10.0178
▁붙잡는	-10.0201
겼어	-10.0205
▁불만	-10.0229
▁이래	-10.0235
▁남자의	-10.0242
▁소문	-10.0243
아주	-10.0258
▁참아	-10.026
▁스타일이	-10.0266
진지	-10.0327
▁중고	-10.033
▁주지	-10.0388
▁집착하	-10.0394
▁착하	-10.0416
▁척하	-10.0421
▁하는거	-10.0423
▁바라	-10.0425
그	-10.0427
먹	-10.0454
▁필요한	-10.0476
선물	-10.0497
▁멍청	-10.0509
▁기억이	-10.0512
봅니다	-10.0522
▁되는거	-10.053
봐도	-10.0533
▁포기해야	-10.0542
▁벗	-10.0545
▁착각이	-10.0573
▁알려	-10.0601
▁다되가	-10.0603
입	-10.0623
안한다	-10.0625
▁출근하	-10.0629
마음	-10.0642
▁늘	-10.0647
▁잘못한	-10.0649
▁미련이	-10.0674
스러운	-10.0677
이였	-10.0709
▁고백하	-10.0727
속에서	-10.074
▁보았	-10.0757
▁도와	-10.0766
어서	-10.0768
겠네	-10.0779
이겠죠	-10.0782
안보여	-10.0807
▁없어졌	-10.0809
▁끝인	-10.0814
▁시작하	-10.0814
고파	-10.0826
▁주는	-10.0826
▁죽었	-10.0841
▁이별에	-10.085
굴	-10.0854
▁의외	-10.087
들을	-10.088
는지	-10.088
▁안가	-10.0885
1	-10.0886
▁트	-10.0894
나는	-10.0896
쳤어	-10.0897
나네	-10.0928
▁불행	-10.0931
▁해줄	-10.0935
때문에	-10.096
▁찾아가	-10.0974
▁했네	-10.0987
▁반복	-10.0999
직	-10.101
▁아이돌	-10.1013
▁해야하나	-10.1027
▁솔직	-10.1033
탈	-10.1033
했어요	-10.1034
한게	-10.1035
▁없다는	-10.1045
▁헤어	-10.1047
▁이별하는	-10.1055
모	-10.1062
이란게	-10.1062
5	-10.107
▁사랑이라는	-10.1073
를까	-10.1075
풀	-10.1083
들고	-10.1085
하려면	-10.1098
올	-10.1109
명	-10.1115
이다	-10.1116
▁공부할	-10.1119
꿈	-10.1123
해보고	-10.1125
노래	-10.1132
▁준비하는	-10.1146
속에	-10.1146
배	-10.1146
석	-10.1147
맘	-10.1148
열	-10.1155
스타일	-10.1156
▁뒤에	-10.1171
사진	-10.1172
▁참았	-10.1173
그리고	-10.1179
될	-10.1183
▁받아들여	-10.1186
▁실망	-10.1188
완	-10.12
볶	-10.1203
둔	-10.1212
상담	-10.1212
다리	-10.1212
▁잘생겼	-10.1217
탈이	-10.1217
▁죽어	-10.1222
찌	-10.1223
싸	-10.1226
처	-10.1235
▁지울	-10.1236
손	-10.1237
따로	-10.1238
만남	-10.1241
쌈	-10.1244
되가네	-10.1251
였던	-10.1254
장이	-10.1255
곳	-10.1258
가기	-10.127
모습	-10.128
문득	-10.128
롱	-10.1281
동물	-10.1282
생각이	-10.1284
싸움	-10.1288
뒤	-10.129
해도될까	-10.1292
됨	-10.1292
팩	-10.1292
▁인연이	-10.1292
당했어	-10.1293
▁해외여행	-10.1298
극	-10.13
퇴근	-10.1306
출	-10.1306
있네	-10.1317
빵	-10.1319
커플	-10.1323
베	-10.1336
빨	-10.1338
혔어	-10.1345
끈	-10.1347
몰	-10.1349
밖	-10.135
▁극복하	-10.1359
얘	-10.1359
향	-10.1362
다른	-10.1376
▁비슷	-10.1379
거겠죠	-10.139
난거	-10.1392
슬	-10.1399
보낼	-10.1399
얼	-10.1403
한번	-10.1416
▁말자	-10.1433
▁바꿀	-10.145
▁남사친	-10.1451
드는	-10.1455
▁취직하	-10.1462
▁사귀면	-10.1492
야하나봐	-10.1501
▁뭐지	-10.1511
한건가	-10.1516
▁불안	-10.1541
▁넘었	-10.1543
▁받아들이	-10.1546
이라고	-10.155
▁만족해	-10.1571
웠어	-10.1588
▁나빠	-10.1593
▁갠톡	-10.1607
▁됐	-10.1619
은거	-10.162
▁선물이	-10.1639
▁피곤	-10.164
▁아침이	-10.1646
▁지나갔	-10.1663
▁보일	-10.1677
▁고백할까	-10.1683
정신	-10.1704
인줄	-10.1722
▁버리	-10.1728
▁후련하	-10.1729
▁모르겠지	-10.1739
▁타이밍	-10.1743
▁복전	-10.1747
▁결혼할	-10.1754
끄러워	-10.1755
▁이것	-10.1757
▁카톡할	-10.1767
거니	-10.1772
께	-10.1796
▁준비할	-10.1805
▁주변	-10.1833
절이	-10.1836
▁보다	-10.185
할까봐	-10.1853
나의	-10.1873
▁기다려야	-10.1877
하고싶다	-10.1877
▁흐	-10.1877
온	-10.189
하냐	-10.1893
▁태어	-10.1903
▁발전	-10.1913
러운	-10.1916
▁20	-10.193
련	-10.1935
닝	-10.1939
▁똑	-10.1939
▁솔로	-10.1941
룩	-10.1941
싹	-10.1946
▁퇴근길	-10.1947
끔	-10.1951
▁막히	-10.1954
▁한숨	-10.1954
품	-10.1957
▁다닐	-10.1959
▁어떨	-10.1961
롭	-10.1966
▁완벽	-10.1966
활	-10.1967
색	-10.1967
▁깎	-10.197
▁확	-10.197
념	-10.197
납	-10.197
듭니다	-10.1972
육	-10.1972
둥	-10.1973
낌	-10.1973
십	-10.1973
뱃	-10.1973
▁셀프	-10.1973
▁짠	-10.1973
▁팀	-10.1973
왓	-10.1973
▁계획	-10.1973
▁공휴일에	-10.1973
▁금수저	-10.1973
▁대리효도	-10.1973
▁드레스	-10.1973
▁떴	-10.1973
▁렌	-10.1973
▁멈춰	-10.1973
▁모쏠	-10.1973
▁묘	-10.1973
▁밑바닥	-10.1973
▁바닥	-10.1973
▁배불러	-10.1973
▁부팅	-10.1973
▁비정상이	-10.1973
▁비혼주의	-10.1973
▁빚	-10.1973
▁섬	-10.1973
▁심쿵	-10.1973
▁아날로그	-10.1973
▁아닐까	-10.1973
▁앱	-10.1973
▁잘생겨	-10.1973
▁쪄	-10.1973
▁쪼금	-10.1973
▁창피해	-10.1973
▁콩깍지	-10.1973
▁태어났을까	-10.1973
▁턱	-10.1973
▁하객	-10.1973
▁헛	-10.1973
▁헷갈려	-10.1973
▁혼란스러워	-10.1973
▁혼인신고	-10.1973
▁홧	-10.1973
▁훔쳐보	-10.1973
▁히스테리	-10.1973
꽤	-10.1973
넋	-10.1973
댈	-10.1973
됬네	-10.1973
땜	-10.1973
렛	-10.1973
렬	-10.1973
례	-10.1973
샜	-10.1973
엉엉	-10.1973
욱	-10.1973
젤	-10.1973
짰	-10.1973
짼데	-10.1973
콘	-10.1973
탐	-10.1973
팍	-10.1973
펴	-10.1973
핫	-10.1973
흥	-10.1973
▁자존심	-10.1973
윗	-10.1973
닷	-10.1973
앗	-10.1973
오른다	-10.1973
▁도저히	-10.1973
▁베란다	-10.1973
▁스스로	-10.1973
쏟아	-10.1973
▁골랐	-10.1973
▁씨씨	-10.1973
▁땡긴다	-10.1973
▁생생한	-10.1973
▁환심	-10.1973
▁친절한	-10.1973
▁호칭	-10.1973
▁드라이브	-10.1973
▁밀당	-10.1973
▁빌릴까	-10.1973
▁어색한	-10.1973
▁당당하	-10.1973
▁자극이	-10.1973
▁투잡	-10.1973
▁세탁	-10.1973
▁표시	-10.1973
▁창문	-10.1974
▁간절하	-10.1974
▁부질없	-10.1974
▁불타올	-10.1974
▁갈궈	-10.1974
▁시간낭비인	-10.1974
▁노잼	-10.1974
▁공황	-10.1974
▁열흘	-10.1974
▁미끄러질	-10.1974
▁존재	-10.1974
▁갈등	-10.1974
▁평온	-10.1974
▁아까운	-10.1974
▁외롭	-10.1974
▁드라이	-10.1974
▁증오	-10.1974
▁반가워	-10.1974
▁구썸남	-10.1974
▁으으	-10.1974
▁간접	-10.1974
▁되어가네	-10.1974
▁서핑	-10.1974
▁예랑이	-10.1974
▁서툴러	-10.1974
▁미안하대	-10.1974
▁격려	-10.1975
▁바나나	-10.1975
▁학벌	-10.1975
▁돌아올까	-10.1975
▁여러명	-10.1975
▁발견	-10.1975
▁스노	-10.1975
▁친군	-10.1975
▁시골	-10.1975
더군	-10.1975
▁롱디	-10.1975
았더니	-10.1975
울컥	-10.1975
▁비오는날	-10.1975
▁떨어짐	-10.1975
▁공복이	-10.1975
▁숨막히	-10.1976
▁취미생활	-10.1976
▁힘이드네	-10.1976
▁개념	-10.1976
▁끓여	-10.1976
▁어울릴까	-10.1976
▁도와준	-10.1977
▁반응	-10.1977
▁오랜연애	-10.1977
▁짜증남	-10.1977
▁혼밥	-10.1977
▁영화보러	-10.1977
블루	-10.1977
▁진실	-10.1977
▁구속	-10.1977
▁백수	-10.1978
▁잊혀져	-10.1978
▁바꿔볼까	-10.1978
▁끊어야	-10.1978
▁단순	-10.1978
▁보인다	-10.1978
▁정신병	-10.1979
▁기본	-10.1979
▁가벼	-10.1979
▁생일선물	-10.1979
▁서운해	-10.1979
▁누워	-10.1979
잔치	-10.198
▁전환	-10.198
▁유료	-10.198
▁뒤숭숭하네	-10.198
▁다음에	-10.198
▁전역	-10.198
▁목표	-10.198
▁자장가	-10.1981
▁깨짐	-10.1981
▁까먹었어	-10.1982
▁기술	-10.1982
▁유행	-10.1982
쟁이	-10.1982
▁상대방	-10.1982
▁감당	-10.1983
▁탄다	-10.1983
▁정리했습니다	-10.1983
▁봤습니다	-10.1983
▁좋겠습니다	-10.1983
▁비밀연애	-10.1983
▁배워볼까	-10.1983
▁공감	-10.1984
▁세워	-10.1984
▁매너	-10.1985
▁빨래	-10.1985
▁도망	-10.1985
▁매달려	-10.1985
겼는데	-10.1985
▁심심하다	-10.1986
▁어쩔수	-10.1986
허허	-10.1986
▁떠나간	-10.1986
▁미운	-10.1987
▁다닐까	-10.1987
▁계신	-10.1987
▁개인적	-10.1987
▁끝났습니다	-10.1987
▁스케	-10.1987
▁올랐어	-10.1987
▁사회에서	-10.1988
▁보고파	-10.1988
▁돌아와	-10.1988
▁출근길	-10.1988
▁경험	-10.1989
▁결과	-10.1989
▁졸업식	-10.199
▁망상	-10.199
▁술자리	-10.1991
▁지쳤어	-10.1991
▁의미일까	-10.1992
▁여기까지	-10.1992
탈까	-10.1992
▁아름다	-10.1992
▁시선	-10.1993
터리	-10.1994
간당	-10.1994
▁허무하네	-10.1994
▁치마	-10.1995
▁생길	-10.1996
▁대학원	-10.1996
▁안되겠죠	-10.1997
▁누구냐	-10.1997
▁싸운	-10.1997
▁11	-10.1998
▁허기	-10.1998
▁접어야	-10.1998
▁무너졌어	-10.1999
하며	-10.1999
▁상상	-10.1999
플라	-10.2
▁미래	-10.2001
▁고백했다	-10.2001
구경	-10.2001
▁연락했습니다	-10.2003
▁한계	-10.2005
▁빠른	-10.2007
▁아니었어	-10.2008
▁아깝다	-10.2009
▁한달반	-10.201
▁퇴근길에	-10.201
▁일주일이네	-10.2011
센스	-10.2011
▁약점	-10.2012
▁장난인지	-10.2012
▁정리하려고	-10.2013
▁아니겠지	-10.2014
▁식었어	-10.2015
▁얘기하지	-10.2016
▁당연한	-10.2017
▁쌓인	-10.2018
▁주차장	-10.2018
▁구남친	-10.202
▁변명	-10.202
▁많겠지	-10.202
▁전여자친구	-10.2021
▁찍었네	-10.2021
▁똑같은	-10.2021
▁너무너무	-10.2022
▁전학가	-10.2022
▁알아내	-10.2023
▁바뀌어	-10.2024
▁밀려오	-10.2024
▁잠시	-10.2025
▁안오지	-10.2025
▁해외	-10.2025
▁괴롭다	-10.2026
▁무섭다	-10.2027
▁좋긴	-10.2027
▁변해가	-10.2027
▁고집	-10.2027
▁잊는다는	-10.2027
▁무리일까	-10.2028
▁무섭네	-10.2029
▁문화	-10.203
▁변화	-10.2033
▁다갔어	-10.2034
게되네	-10.2035
▁재회했는데	-10.2036
▁없어졌으면	-10.2036
길래	-10.2038
▁당신	-10.204
▁예쁜데	-10.2041
▁엇갈리	-10.2041
▁씹어	-10.2042
▁가고싶다	-10.2043
있나	-10.2044
▁잊자	-10.2044
▁호구	-10.2044
▁심남	-10.2045
▁썸인가요	-10.2047
▁하지마	-10.205
▁살았는데	-10.2052
보려고	-10.2053
▁걸었어	-10.2055
▁싶으면	-10.2055
▁조심	-10.2056
▁다되어가네	-10.2056
▁물건들	-10.2059
▁연락오네	-10.2064
지못한	-10.2066
▁어디가지	-10.2067
거든	-10.2067
로그	-10.2071
▁역시나	-10.2071
▁보임	-10.2071
▁차인	-10.2076
▁한달만에	-10.2076
▁애인이	-10.2078
▁움직이	-10.2078
▁지적	-10.2082
뽑기	-10.2082
▁떨어	-10.2089
▁마라	-10.209
▁챙	-10.2091
▁누락됐	-10.2093
▁커플여행	-10.2095
▁한달째	-10.2097
▁어색해졌어	-10.2097
셨나	-10.2098
▁침대	-10.2099
▁소심	-10.2112
▁해야할	-10.2114
▁요구	-10.2118
▁크게	-10.212
▁수학여행가	-10.212
▁돌아오는	-10.2123
이브	-10.2124
▁혼자인	-10.2124
▁휴학	-10.2125
▁저주	-10.2127
▁복잡해	-10.2128
▁연애중	-10.2128
▁중독인가	-10.2129
▁배고프	-10.2134
밀어	-10.2134
집에	-10.2134
▁생각일까	-10.2136
▁농	-10.2139
▁싫어져	-10.2146
▁고백해야	-10.2148
▁불편	-10.2155
▁떼	-10.2156
▁밟	-10.2156
▁쭉	-10.2156
▁흠	-10.2156
▁끌	-10.2156
▁뜻밖	-10.2157
여친이	-10.2157
▁괜찮을	-10.2161
▁쌓였	-10.2161
▁마주쳤	-10.2162
▁충	-10.2162
오르네	-10.2167
▁김치	-10.2168
▁그랬	-10.217
▁총회	-10.217
▁불쑥	-10.2171
▁꾸미	-10.2173
▁급해	-10.2176
▁사랑해줘	-10.2177
▁비참해	-10.2177
했었는데	-10.2185
지는것	-10.2185
▁걸까요	-10.2186
▁진정	-10.2187
▁하자	-10.2188
▁예정	-10.2189
▁그리	-10.2189
려면	-10.2194
▁웃기	-10.2197
▁지났는데	-10.2197
▁둔한	-10.2199
▁괜찮지	-10.22
▁동거하다	-10.2207
는걸까	-10.2213
▁소개받	-10.2214
▁보이지	-10.2216
▁잘할	-10.2218
▁버려야겠	-10.2221
▁깨진	-10.2223
버리네	-10.2223
▁브	-10.2224
▁나이들	-10.2225
▁춥고	-10.2227
▁가시	-10.2233
▁올리	-10.2237
▁흘렸	-10.2241
▁죽겠다	-10.2241
▁꿨	-10.2243
▁신기	-10.2247
▁아파트	-10.2249
▁입을까	-10.2249
▁닮아	-10.225
▁나약	-10.2253
▁혼내	-10.2254
▁집앞	-10.2262
▁이러고	-10.2264
▁거였	-10.2265
▁귀찮게	-10.2272
▁퍼	-10.2275
▁알았다	-10.2275
▁새로	-10.2278
돌아	-10.2286
▁가슴은	-10.2286
▁응	-10.2286
▁무서	-10.2294
▁됐습니다	-10.2308
▁용기	-10.2316
▁보였	-10.2319
▁혼나	-10.232
거지	-10.2325
▁받네	-10.2327
▁모르겠어요	-10.2328
▁사람인	-10.233
▁하아	-10.2335
▁답답해서	-10.2336
▁것일까	-10.2344
▁그런지	-10.2348
▁사귀는데	-10.235
웃음	-10.2353
▁남자와	-10.2356
렸으면	-10.2359
일까요	-10.237
다가도	-10.2376
지가	-10.2377
▁전과	-10.2377
▁진도	-10.2378
▁너와	-10.238
▁나가지	-10.2384
▁위기	-10.2389
▁욕을	-10.2393
▁편이	-10.2395
이고	-10.2397
▁상처를	-10.2399
▁버림	-10.2403
▁블	-10.2408
▁얼어	-10.2413
▁저만	-10.2416
▁골	-10.2418
▁늘어	-10.2421
▁보내지	-10.2427
▁동기	-10.2432
▁드	-10.2436
▁딸까	-10.2438
▁힘든거	-10.244
▁받은	-10.2441
▁나갈까	-10.2445
시다	-10.2447
▁욕하는	-10.2451
▁탈출	-10.2453
▁먹나	-10.2458
못	-10.246
비용	-10.2461
▁케이스	-10.2461
▁켜	-10.2462
▁보여주	-10.2466
▁연인이	-10.2473
▁파	-10.2474
해버렸네	-10.2478
▁견	-10.2487
▁무뎌질	-10.2489
오지마	-10.249
▁슬	-10.2492
▁저한테	-10.2492
▁헤어지자네	-10.2494
▁썸타다	-10.2498
▁향기	-10.25
▁다른데	-10.2502
▁농구하	-10.2506
▁기다리게	-10.2509
▁것들	-10.251
▁못할까	-10.2512
▁될지	-10.2519
▁되는건	-10.2522
다니기	-10.253
▁년	-10.2536
나고	-10.2537
▁불금이	-10.2541
▁가족이	-10.2542
▁못자	-10.2545
▁틀어	-10.2549
때도	-10.2549
▁추억들	-10.2557
▁머리로	-10.2563
화가나네	-10.2577
▁썸일	-10.258
▁든다	-10.2587
▁쓸	-10.2589
사실	-10.2603
▁고치고	-10.261
▁비만	-10.2612
뿐이	-10.2626
▁아파서	-10.2631
▁사귄지	-10.2638
▁에이	-10.2644
▁들어오	-10.2653
▁키울	-10.2683
배정	-10.2683
▁기대하	-10.2685
▁극	-10.2687
연이	-10.269
▁썼다	-10.2698
▁넘은	-10.2702
▁팩	-10.2703
▁일정	-10.2715
▁타면	-10.2724
▁사랑했어	-10.2728
왔습니다	-10.2729
▁껴	-10.273
▁처	-10.2731
▁도전	-10.2731
▁괜찮아졌다	-10.2732
▁짝사랑인	-10.2736
▁하려면	-10.2738
타는	-10.2763
▁이상한가	-10.2763
해야겠다	-10.2765
라네	-10.2768
▁좋네	-10.2783
▁넘어	-10.2798
▁있어요	-10.2815
▁결	-10.2822
정이	-10.2823
▁터	-10.2835
▁끝이났	-10.2842
▁않다	-10.2856
다니고	-10.2868
▁입을	-10.2869
▁친해	-10.2873
▁보는데	-10.288
▁허	-10.2883
달래	-10.2891
▁서점에	-10.2891
▁생각난다	-10.29
▁나을	-10.2901
는걸	-10.2903
▁술이	-10.2911
취	-10.2914
▁해줬으면	-10.2915
▁했어요	-10.2917
▁읽어	-10.2924
▁나는데	-10.2933
▁행복해질	-10.2936
서도	-10.2938
가도	-10.2955
▁뭐였	-10.2962
▁마음만	-10.2973
해주	-10.299
기는	-10.2991
▁놀러갈	-10.2995
▁결국은	-10.3003
▁경	-10.3014
야할지	-10.3022
▁헬스장	-10.305
이트	-10.3074
▁근	-10.3076
▁운명인	-10.3079
▁성숙	-10.3089
년하고	-10.3094
▁나에게	-10.3118
▁지워	-10.3121
▁화냈	-10.3129
▁편안하	-10.3135
▁포기하	-10.3141
▁시키	-10.3194
▁사라	-10.321
네여	-10.3215
▁굴	-10.3229
친구에게	-10.3246
▁줘야	-10.3249
▁괴로	-10.3257
뻔	-10.3278
▁만들까	-10.3279
이라서	-10.3279
▁너무하네	-10.3289
▁안될	-10.3289
▁취직이	-10.329
학원	-10.3297
▁있었	-10.3308
▁길에	-10.3317
▁산다	-10.3334
~~~	-10.3335
▁살았	-10.335
▁찍었	-10.3375
▁지냈	-10.3379
▁연락오	-10.3389
▁했나봐	-10.339
▁병신	-10.3393
지기	-10.3393
▁의지	-10.3395
▁청	-10.3399
시간에	-10.3413
▁지옥같	-10.3452
▁남은	-10.3464
데도	-10.3506
▁좋지	-10.3515
▁서	-10.3537
인거죠	-10.3546
▁메	-10.3555
▁참을	-10.3563
▁그런거	-10.3579
▁벗으	-10.3582
▁돌아가	-10.3583
었다	-10.3586
▁바람난	-10.3586
무리	-10.3592
▁재미있는	-10.3597
▁해주	-10.3618
나게	-10.3622
하려	-10.3623
신청	-10.3643
▁우	-10.3668
▁헤어져야하	-10.3668
에도	-10.3676
▁해결	-10.3676
▁멍청한	-10.3688
▁살만	-10.3693
▁제자리걸음	-10.3738
▁장기	-10.3741
으니	-10.3755
어져	-10.3766
▁안주	-10.379
▁참지	-10.3795
▁하죠	-10.3796
▁말라	-10.38
▁돼지	-10.3802
▁괜찮아지	-10.3821
▁체	-10.3823
해야할듯	-10.3829
▁노력하	-10.3829
▁우정이	-10.3832
어이가	-10.3835
▁이쁜	-10.385
▁친	-10.3857
▁미치	-10.3882
▁커지	-10.3887
는구나	-10.3912
▁전화가	-10.3916
원해	-10.3922
▁어디가	-10.393
▁호	-10.3961
▁후회하	-10.3962
▁그나	-10.3964
달라는	-10.3975
끝이네	-10.3999
▁어떻해	-10.3999
가왔습니다	-10.4026
▁알바하면	-10.4039
▁사랑만	-10.4041
▁으	-10.4044
▁숙	-10.4051
▁고르	-10.4054
된다는	-10.4061
해봐	-10.4064
된다	-10.4069
여자친구	-10.4072
야겠어	-10.4081
방에	-10.412
생인데	-10.4136
것만	-10.4156
족	-10.4167
받아	-10.4184
더	-10.4211
▁겨울	-10.4238
버리겠	-10.4271
잘	-10.429
▁어떡하	-10.431
르는	-10.4317
나가고	-10.4322
▁취	-10.4338
지내고	-10.4345
났네	-10.4357
▁부담스러워하	-10.4357
었을까	-10.4361
다면	-10.4364
▁수면	-10.4381
▁끊는	-10.4395
하기로했	-10.4406
다는데	-10.4411
어볼까	-10.4414
뿐	-10.4429
▁키우는	-10.444
▁행복하	-10.4465
▁자다	-10.4469
본	-10.4479
▁맞았	-10.4514
은데	-10.4517
▁궁금하	-10.4519
▁우정	-10.4532
▁싫지	-10.4535
말이라	-10.4536
▁좋아하지	-10.4548
▁보름달	-10.4583
다녀야	-10.4597
▁치맥	-10.4602
▁할때	-10.4613
불가	-10.4614
▁냉정	-10.4618
▁첫이별	-10.4629
▁애인	-10.4633
▁오해	-10.4647
아무일	-10.4692
▁말해주	-10.4727
▁질려하	-10.4734
▁헤어졌다	-10.4748
빠	-10.4749
다시	-10.479
▁절친	-10.4798
보기만	-10.48
▁사랑받	-10.4806
할거	-10.4833
일이네	-10.4849
▁피나	-10.4853
제로	-10.4865
생각	-10.489
▁잊어볼	-10.4894
진짜	-10.492
▁하려고	-10.4925
버렸습니다	-10.4927
▁중간	-10.4932
끝	-10.4935
▁놀리	-10.4941
는것	-10.4949
▁끼	-10.4955
▁모임에	-10.4966
만나자는	-10.4975
인다	-10.4996
▁알아버렸	-10.5023
톡	-10.5064
▁듣고싶	-10.508
▁레	-10.5089
▁난방	-10.5135
되가는데	-10.5138
나보네	-10.5144
▁통	-10.5144
▁중요	-10.5144
▁될거	-10.5145
▁줬으면	-10.515
▁괴	-10.5166
▁할까요	-10.5171
▁어이	-10.5177
▁심하	-10.5178
달만에	-10.5183
후에	-10.522
같지	-10.5226
워보	-10.5246
주라	-10.5264
▁어장	-10.5272
떡	-10.5272
질때	-10.5286
▁과에	-10.5288
화가	-10.5288
▁필요	-10.5339
해줬으면	-10.5346
▁챙겨줄	-10.5348
잡	-10.5363
▁공시생	-10.5363
채	-10.5375
▁바보같	-10.5396
안돼	-10.5404
버리	-10.541
▁공허	-10.543
▁아프지	-10.5441
▁재밌을	-10.5453
이가	-10.5469
▁편할	-10.5471
하긴	-10.5499
셨어	-10.5502
▁연락올	-10.5502
좋을까	-10.5526
놓지	-10.5528
시도	-10.5531
매일	-10.5535
화	-10.555
▁죽는	-10.5551
▁왔	-10.5557
▁임	-10.5565
▁교회에	-10.5576
어진다	-10.5577
▁자야	-10.5586
▁짝사랑이	-10.5604
났	-10.562
▁라는	-10.5621
버렸네	-10.5632
▁없애	-10.5634
어지고	-10.5645
절	-10.565
어야지	-10.565
없네	-10.566
▁재회하고	-10.566
했습니다	-10.5686
밤	-10.5702
여행이	-10.5703
간대	-10.5705
체가	-10.5731
업	-10.5734
▁않았	-10.5738
무슨	-10.5739
▁솔직하	-10.5749
▁싫어하나	-10.5752
아파	-10.5759
보면	-10.5773
▁술먹	-10.5778
이였어	-10.5797
▁답인	-10.5824
껴	-10.5828
나만	-10.5831
질까	-10.5843
▁밤이	-10.5852
▁일인	-10.589
▁받으	-10.5891
▁하는지	-10.5892
▁착해	-10.5909
▁여행가고	-10.5909
▁도전하	-10.592
▁소개해	-10.5931
휴	-10.5951
▁붙잡아	-10.5965
되지	-10.5977
있다	-10.5982
고민	-10.5987
지면	-10.599
해져	-10.6
▁쿨	-10.6013
맨날	-10.6024
잠	-10.6038
▁써야	-10.6039
▁은퇴	-10.6044
하우스	-10.6045
▁짝	-10.6052
▁취업하	-10.6065
▁싫어할까	-10.6066
감정	-10.6074
워질	-10.6079
▁바꿔	-10.608
목	-10.6081
보고싶어	-10.6086
들었어	-10.6097
쉬	-10.6102
견	-10.6102
따	-10.6102
탄	-10.6102
▁비가오	-10.6104
사람은	-10.6104
문자	-10.6106
기를	-10.6108
나긴	-10.6109
이었어	-10.6111
투	-10.6134
▁예민	-10.6135
딱	-10.6139
▁불금	-10.6139
천	-10.614
순간	-10.6141
기름	-10.6143
생각나네	-10.6152
꿀	-10.6153
책	-10.6155
그런	-10.6162
낫네	-10.6169
옷	-10.617
▁잠겼	-10.6171
됐으면	-10.6184
찬	-10.6186
촬영	-10.6188
노래방	-10.6192
키스	-10.6195
차단	-10.6199
학생	-10.6199
갑니다	-10.6201
쇼핑	-10.6202
▁났어	-10.6215
동생한테	-10.6217
사정	-10.6222
태	-10.6222
케이스	-10.6223
홀	-10.6224
땅	-10.6224
빙	-10.6224
꾹	-10.6224
'	-10.6224
▁전화하고	-10.6227
빼	-10.6228
마디	-10.623
이런	-10.6231
아플	-10.6233
추억	-10.6234
끝났네	-10.6235
백한다	-10.6238
탈출	-10.6241
사귄	-10.6241
역	-10.6241
네ᅮ	-10.6247
벌	-10.6247
쓸	-10.6248
패	-10.6254
미팅	-10.6255
읽씹	-10.6257
신이	-10.6259
▁이사하	-10.626
모두	-10.6261
조건	-10.6264
거죠	-10.6268
양말	-10.627
▁아니라	-10.6272
올려	-10.6273
지금	-10.6274
경우	-10.6274
설	-10.6278
▁욕해	-10.6279
늦	-10.6281
골	-10.6282
▁그만둬	-10.6284
붙	-10.6285
맛	-10.6286
▁투자	-10.6287
푸	-10.6288
것인가	-10.6289
블	-10.6294
을때	-10.6298
수건	-10.6301
뿌	-10.6304
빌려	-10.6306
노	-10.6326
버림	-10.6326
▁이모	-10.6332
꿨	-10.6338
됐	-10.6342
잘라	-10.6353
마셔	-10.6354
조절	-10.6362
들면	-10.6369
라진	-10.639
찾	-10.6402
심리	-10.6407
▁그지	-10.641
는건가	-10.6412
런지	-10.6413
주차	-10.6417
스타일이	-10.6422
학원에	-10.6444
반복	-10.6449
후폭풍	-10.645
문제	-10.6456
▁잘지내고	-10.6462
▁중이	-10.6465
부러	-10.649
치는	-10.6491
▁걱정이	-10.6495
▁이뤄	-10.65
시켜야	-10.6502
아볼	-10.6508
▁해봐	-10.6513
▁싫어해	-10.6527
▁상처받	-10.6536
▁친구라	-10.6537
울까	-10.6557
적이	-10.6558
폭풍	-10.6566
루	-10.6568
▁쌓	-10.6597
▁후련	-10.6602
어진	-10.6606
통이	-10.6609
▁이해못	-10.6636
정리를	-10.6641
다는걸	-10.6665
났으면	-10.6665
못하겠어	-10.6665
간에	-10.6668
▁신청	-10.6682
겠	-10.6688
보네	-10.6692
▁끄	-10.6703
▁연락해보	-10.6705
▁순수	-10.671
▁나쁘	-10.6712
젠	-10.6716
▁잊혀	-10.6732
했다는	-10.6734
▁수학여행	-10.6737
을까요	-10.6738
▁밉	-10.6748
▁살면	-10.6752
▁흘렀	-10.6753
▁시원	-10.6764
▁멀어진	-10.6767
복이	-10.677
한다면	-10.6774
자만	-10.6781
생긴	-10.6788
▁침대에	-10.6792
▁익숙	-10.6793
▁움직	-10.6803
갔다	-10.6804
가입	-10.6807
으면서	-10.6807
능	-10.6815
럽	-10.6817
▁나야	-10.6828
마시	-10.684
▁흘	-10.6841
▁못나	-10.6846
▁집앞에	-10.6846
▁가치관	-10.6848
짝	-10.6853
▁늙어	-10.6859
올라	-10.6863
▁매달	-10.6864
▁깨졌	-10.6868
▁40	-10.6872
조언	-10.6875
▁가을	-10.6875
치료	-10.6876
▁잘지내	-10.6876
고픈	-10.6887
▁물건	-10.689
▁헤	-10.6892
▁기억해	-10.6894
▁머릿	-10.6899
▁불효	-10.69
▁뛰	-10.6901
▁안오	-10.6917
▁힘드	-10.6921
을거야	-10.6925
꼈	-10.6928
▁똑같	-10.6928
▁떨어졌	-10.6928
▁늙	-10.6929
▁질리	-10.693
▁어려	-10.6931
▁덤덤	-10.6938
▁허무하	-10.6939
▁정상	-10.694
▁기대했	-10.6942
꾼	-10.6943
▁허전	-10.6944
험해	-10.6946
쪽	-10.6955
▁스타	-10.6955
환	-10.6958
황	-10.6958
▁잃	-10.696
▁흔	-10.696
▁전화할	-10.6963
▁귀엽	-10.6963
옥	-10.6963
▁대충	-10.6964
냈는데	-10.6964
▁삐	-10.6966
▁부담스러	-10.6966
섭	-10.6967
힌	-10.6968
▁끓	-10.6968
둬	-10.6968
쩌	-10.6968
쑥	-10.6971
▁존	-10.6971
잼	-10.6972
▁컴	-10.6972
▁핸드	-10.6972
▁광	-10.6972
▁낮	-10.6972
텔	-10.6972
하지않	-10.6973
;	-10.6973
익	-10.6973
뒹	-10.6973
▁훌	-10.6973
덩	-10.6973
▁건강검진	-10.6973
▁꼴	-10.6973
▁나쁨	-10.6973
▁노처녀	-10.6973
▁슈퍼문이	-10.6973
▁엉망	-10.6973
▁엮	-10.6973
▁유세부	-10.6973
▁호박씨	-10.6973
딘	-10.6973
섯	-10.6973
템	-10.6973
%	-10.6973
C	-10.6973
D	-10.6973
O	-10.6973
P	-10.6973
c	-10.6973
▁S	-10.6973
▁감정컨트롤	-10.6973
▁객관적	-10.6973
▁관절염	-10.6973
▁교직이수	-10.6973
▁금사빠	-10.6973
▁기획사	-10.6973
▁깔	-10.6973
▁깬	-10.6973
▁깰	-10.6973
▁깼	-10.6973
▁낙엽	-10.6973
▁날카로워	-10.6973
▁논문	-10.6973
▁높아	-10.6973
▁높이	-10.6973
▁덮	-10.6973
▁돌싱	-10.6973
▁동문서답	-10.6973
▁들이댔	-10.6973
▁들켰	-10.6973
▁띵	-10.6973
▁로맨스	-10.6973
▁망설여	-10.6973
▁맞출까	-10.6973
▁먹여주나	-10.6973
▁멈	-10.6973
▁모태솔로	-10.6973
▁못믿겠	-10.6973
▁무뚝뚝해	-10.6973
▁바뀔	-10.6973
▁바쁜	-10.6973
▁버릇	-10.6973
▁버텨	-10.6973
▁부딪	-10.6973
▁부탁드립니다	-10.6973
▁블랙박스	-10.6973
▁빡빡	-10.6973
▁뺏	-10.6973
▁뽀뽀	-10.6973
▁사투리	-10.6973
▁상견례	-10.6973
▁샐러드	-10.6973
▁섞	-10.6973
▁소풍	-10.6973
▁숏컷	-10.6973
▁스트레칭	-10.6973
▁실험실	-10.6973
▁쌍커풀	-10.6973
▁썰	-10.6973
▁아무렇지	-10.6973
▁아쉬움	-10.6973
▁아이스크림	-10.6973
▁아팠	-10.6973
▁애매모호	-10.6973
▁오락가락	-10.6973
▁웨딩드레스	-10.6973
▁으악	-10.6973
▁음악	-10.6973
▁인터넷	-10.6973
▁재택근무	-10.6973
▁전기장판	-10.6973
▁젊	-10.6973
▁조명빨	-10.6973
▁좌절	-10.6973
▁주저리주저리	-10.6973
▁중소기업	-10.6973
▁쥐꼬리	-10.6973
▁지겹	-10.6973
▁짬뽕	-10.6973
▁쪘	-10.6973
▁찾아갔습니다	-10.6973
▁춘곤증인가	-10.6973
▁컸으면	-10.6973
▁콕콕	-10.6973
▁클스마스	-10.6973
▁텁텁	-10.6973
▁텅	-10.6973
▁포근포근	-10.6973
▁폰겜	-10.6973
▁푹	-10.6973
▁피어싱	-10.6973
▁햇볕	-10.6973
▁헉	-10.6973
▁헌팅	-10.6973
▁험담	-10.6973
▁헤헤	-10.6973
▁후유증이	-10.6973
▁훅	-10.6973
▁훈	-10.6973
▁휴유증	-10.6973
▁흑역사	-10.6973
걍	-10.6973
곡	-10.6973
곱	-10.6973
깅	-10.6973
꽂	-10.6973
끗	-10.6973
넛	-10.6973
넥	-10.6973
넹	-10.6973
녹	-10.6973
닭	-10.6973
댄	-10.6973
돋	-10.6973
똥	-10.6973
뚱	-10.6973
띰	-10.6973
램	-10.6973
랭	-10.6973
렸을까	-10.6973
룸	-10.6973
률	-10.6973
릭	-10.6973
맹	-10.6973
맺	-10.6973
메이크업	-10.6973
묵	-10.6973
뮤	-10.6973
밭	-10.6973
벅	-10.6973
범	-10.6973
벨	-10.6973
붓	-10.6973
뷔	-10.6973
빽	-10.6973
뻤	-10.6973
뽀송	-10.6973
삔	-10.6973
샌	-10.6973
샘	-10.6973
섹	-10.6973
송	-10.6973
쇠	-10.6973
쑤	-10.6973
씀	-10.6973
씰룩	-10.6973
앨	-10.6973
왼	-10.6973
욜	-10.6973
웹	-10.6973
웽	-10.6973
윙	-10.6973
젖	-10.6973
젝	-10.6973
줍	-10.6973
즙	-10.6973
징글	-10.6973
짤	-10.6973
쩍	-10.6973
찡	-10.6973
찹	-10.6973
챘	-10.6973
쳇	-10.6973
층	-10.6973
칩	-10.6973
캄	-10.6973
캔	-10.6973
켓	-10.6973
콤	-10.6973
콧	-10.6973
쿠	-10.6973
쿼	-10.6973
퀴	-10.6973
킬	-10.6973
킹	-10.6973
톤	-10.6973
툰	-10.6973
퉁	-10.6973
튜	-10.6973
팬	-10.6973
펑	-10.6973
풋	-10.6973
핀	-10.6973
헐	-10.6973
헥	-10.6973
혐	-10.6973
휙	-10.6973
흡	-10.6973
흰	-10.6973
힐	-10.6973
▁갱	-10.6973
▁김치볶음밥	-10.6973
▁꼼꼼	-10.6973
▁두렵	-10.6973
▁맴	-10.6973
▁부작용	-10.6973
▁안돌아오나	-10.6973
▁와닿	-10.6973
▁취뽀	-10.6973
▁튀	-10.6973
▁흐지부지	-10.6973
깜빡	-10.6973
▁댓글	-10.6973
▁슬픔	-10.6973
▁정동진	-10.6973
캐	-10.6973
컨	-10.6973
텀	-10.6973
홈	-10.6973
▁식욕폭발	-10.6973
▁쪽팔	-10.6973
진행중	-10.6973
▁직업이	-10.6973
▁깜깜	-10.6973
▁하우스웨딩	-10.6973
▁해결방안	-10.6973
▁환경	-10.6973
혈	-10.6973
▁조교하면	-10.6973
잊기싫은	-10.6973
▁고구마	-10.6973
▁입소문	-10.6973
▁거슬려	-10.6973
▁깐깐	-10.6973
▁식도염	-10.6973
▁건물주	-10.6973
▁탄탄	-10.6973
▁허무해	-10.6973
걸레질	-10.6973
하소연	-10.6973
▁느낀	-10.6973
▁견딜	-10.6973
▁술주정	-10.6973
▁스킨쉽	-10.6973
▁친절하	-10.6973
▁담담하	-10.6973
▁브랜드	-10.6973
센터	-10.6973
;;	-10.6973
▁무언가	-10.6973
▁어장관리	-10.6973
▁청춘	-10.6973
▁어리석	-10.6973
▁차리래	-10.6973
▁서먹해	-10.6973
▁황사	-10.6973
▁넘어질뻔	-10.6973
▁술기운	-10.6973
▁초조해	-10.6973
▁기름값	-10.6973
▁헤어졋	-10.6973
▁감미로	-10.6973
▁태몽	-10.6973
▁백업	-10.6973
▁스킨	-10.6973
▁근교	-10.6973
▁문화센터	-10.6973
▁사라질까	-10.6973
▁가까워지	-10.6974
▁엊그	-10.6974
▁쳐다봄	-10.6974
▁폭식	-10.6974
▁데려달라고	-10.6974
▁대쉬해	-10.6974
▁태어났으면	-10.6974
▁팔뚝	-10.6974
▁호텔	-10.6974
▁문콕	-10.6974
▁낮술	-10.6974
▁되어갑니다	-10.6974
▁광탈	-10.6974
▁외출하	-10.6974
▁처량하	-10.6974
▁다음날	-10.6974
▁돌아올거	-10.6974
▁안녕하세	-10.6974
▁희생양	-10.6974
▁바람둥이	-10.6974
▁체육	-10.6974
▁대리님	-10.6974
▁예능	-10.6974
▁두려움	-10.6974
▁취급	-10.6974
▁쓸모	-10.6974
▁확실해졌	-10.6974
▁충전해야	-10.6974
▁독학하	-10.6974
▁이용당	-10.6974
▁환기	-10.6974
▁놀이터에	-10.6974
▁애키우	-10.6974
▁짝사랑이었네	-10.6974
▁맞추려고	-10.6974
▁헤어졌을때	-10.6974
▁부탁	-10.6974
▁뻔뻔	-10.6974
▁화풀이	-10.6974
▁긴장돼	-10.6975
▁변명거리	-10.6975
▁웃어주	-10.6975
비꼬는	-10.6975
▁다녀온	-10.6975
▁할지	-10.6975
빌어먹을	-10.6975
▁봄방학	-10.6975
▁영화보재	-10.6975
▁숨쉬	-10.6975
▁시누	-10.6975
▁찾아갔네	-10.6975
▁산책	-10.6975
▁미루는	-10.6975
▁실패	-10.6975
▁머물	-10.6975
투덜	-10.6975
▁달라질까	-10.6975
▁고시생	-10.6975
▁퇴사	-10.6975
▁새출발	-10.6975
▁노답이	-10.6975
▁절약해	-10.6975
▁끝인거겠죠	-10.6975
▁카풀	-10.6975
▁보수적	-10.6975
▁뜬금	-10.6975
▁우습	-10.6975
▁씁쓸하네	-10.6975
▁잔인하네	-10.6975
▁멀미	-10.6975
▁눌러	-10.6975
▁벗겨	-10.6975
▁분명	-10.6976
▁먹먹함	-10.6976
▁돌아온	-10.6976
▁다가온	-10.6976
▁그만할래	-10.6976
▁간섭	-10.6976
안됐네	-10.6976
▁짜증난다	-10.6976
▁환장	-10.6976
▁양다리	-10.6976
▁온천	-10.6976
▁올려봅니다	-10.6976
▁비교돼	-10.6976
▁인형뽑기	-10.6976
▁취소	-10.6976
▁떠나갔네	-10.6976
▁원망스럽	-10.6976
▁막막	-10.6976
▁출국	-10.6976
▁청강	-10.6976
▁어머	-10.6976
잡히네	-10.6977
▁판단	-10.6977
▁떠올라	-10.6977
▁주저리	-10.6977
▁야구장	-10.6977
▁버려달라고	-10.6977
▁잔소리	-10.6977
▁따듯해	-10.6977
▁억울	-10.6977
▁괴롭혀	-10.6977
▁대학교	-10.6977
▁폭식증	-10.6977
▁꽃바구니	-10.6977
▁어떠	-10.6977
▁회의감	-10.6977
▁불렀	-10.6977
▁말았네	-10.6977
▁앞서서	-10.6977
▁후덜덜	-10.6977
▁바본	-10.6977
▁떠오르네	-10.6978
▁어려운	-10.6978
해본적	-10.6978
그런건가	-10.6978
▁적당히	-10.6978
▁순진	-10.6978
▁불순	-10.6978
▁괴로운	-10.6978
▁치열	-10.6978
▁친추	-10.6978
▁일어난	-10.6979
▁시절	-10.6979
▁살려줘	-10.6979
▁길거리에	-10.6979
▁아름다워	-10.6979
▁끝냈습니다	-10.6979
▁잡담	-10.6979
▁행운	-10.6979
▁뽑아	-10.6979
▁초초	-10.6979
▁진담	-10.698
▁서운한거	-10.698
릴까	-10.698
▁부담스러운데	-10.698
▁예전처럼	-10.698
▁이겨내기	-10.698
▁허전함	-10.698
▁삐져	-10.698
▁어쩌죠	-10.698
▁파마	-10.698
빛으로	-10.6981
▁바보짓	-10.6981
▁직후	-10.6981
▁배워가는	-10.6981
▁따위	-10.6981
▁다음주	-10.6981
▁외박	-10.6981
▁맞는거겠죠	-10.6981
▁들어줄래	-10.6981
▁수상한데	-10.6981
▁떠나갔어	-10.6982
▁싫은가봐	-10.6982
▁커피향	-10.6982
▁탈모	-10.6982
▁철벽치	-10.6982
▁나쁜놈	-10.6982
▁받아드리	-10.6982
▁질질	-10.6982
▁새롭	-10.6983
▁불러준	-10.6983
근처	-10.6983
▁퇴근시간	-10.6983
찬하	-10.6983
▁신입	-10.6983
▁장난친	-10.6983
▁귀엽대	-10.6983
▁않았다면	-10.6983
▁소름	-10.6984
달반	-10.6984
▁그렇겠지	-10.6984
▁감기약	-10.6984
▁비왔으면	-10.6984
바구니	-10.6984
▁남은걸까	-10.6984
▁끊었으면	-10.6984
▁대충했	-10.6985
▁고독	-10.6985
▁자야하는데	-10.6985
▁완벽해지	-10.6985
▁면세	-10.6985
▁무서운건	-10.6985
년동거	-10.6985
▁치유	-10.6985
▁그런건지	-10.6986
▁미쳐	-10.6986
▁말하면	-10.6986
▁간사하	-10.6986
▁부담돼	-10.6986
▁작별	-10.6987
▁반배정	-10.6987
될것같	-10.6987
▁다듬	-10.6987
▁한순간에	-10.6988
▁붙잡으려	-10.6988
▁데려다줬는데	-10.6988
▁경과	-10.6988
▁바래다	-10.6988
▁산이네	-10.6988
▁위대한	-10.6989
▁한번쯤	-10.6989
▁바람피	-10.6989
▁한심하네	-10.699
▁원두	-10.699
▁싫었는데	-10.699
▁괜찮았는데	-10.6991
▁생활비	-10.6991
▁하품	-10.6991
▁한쪽	-10.6992
▁솔로인	-10.6992
크림	-10.6992
▁학교생활	-10.6992
▁영원했으면	-10.6992
▁들이대	-10.6992
▁열받아서	-10.6992
▁떠났습니다	-10.6992
▁잠들기	-10.6992
▁기계	-10.6993
▁공허하네	-10.6993
▁아껴	-10.6994
▁제자리	-10.6994
▁왔나	-10.6994
▁꼬시	-10.6994
▁못받	-10.6994
▁도움	-10.6995
▁나오지	-10.6996
미칠꺼	-10.6996
▁임신	-10.6996
▁고백해도될까	-10.6997
▁필수	-10.6997
▁싶었는데	-10.6997
▁이별중	-10.6997
▁가족같은	-10.6997
▁착각일까	-10.6997
▁냄새날	-10.6997
▁위안	-10.6998
▁주름	-10.6998
▁몸매	-10.6998
▁방심	-10.6999
▁붙여	-10.6999
▁구두	-10.6999
▁아휴	-10.6999
주정도	-10.7
▁필요할까	-10.7
올릴까	-10.7
액션	-10.7
▁사귀자	-10.7
▁모른	-10.7001
▁결재	-10.7001
▁챙겨줘	-10.7001
던곳	-10.7001
버렸나	-10.7001
▁매달렸	-10.7001
▁심난	-10.7001
▁보조	-10.7002
▁아름	-10.7003
▁뿌리	-10.7003
▁달력	-10.7003
▁아닌가봐	-10.7003
▁보름	-10.7003
▁보고싶	-10.7003
▁사랑꾼	-10.7003
▁의미일까요	-10.7004
▁쓰이네	-10.7004
▁아련	-10.7004
▁허전해	-10.7004
▁잊혀진	-10.7005
▁사갈까	-10.7005
▁잡으려	-10.7005
▁마음이란게	-10.7006
▁끝냈는데	-10.7006
▁지침	-10.7007
보내주려	-10.7007
▁잊고싶다	-10.7007
▁깨달	-10.7007
▁자장면	-10.7007
▁똑똑해	-10.7007
▁키워보	-10.7008
▁들었는데	-10.7008
▁봐야겠다	-10.7008
▁덤덤해	-10.7009
▁바람이	-10.701
개월간의	-10.701
않으려고	-10.701
잊혀지려	-10.7012
거겠지	-10.7012
▁본인	-10.7012
▁찾아볼까	-10.7012
▁놓쳤다	-10.7012
▁피해자	-10.7013
▁받았습니다	-10.7013
▁흐음	-10.7013
▁만나지말	-10.7013
▁어디있을까	-10.7014
▁축복	-10.7014
▁달라져	-10.7014
▁후회돼	-10.7014
▁구상	-10.7015
▁경쟁	-10.7015
스트	-10.7015
▁솔로야	-10.7016
바싹	-10.7017
▁겁이나	-10.7018
▁해주기	-10.7018
뜨문	-10.7018
놓은	-10.702
▁잘생긴	-10.702
▁취향인데	-10.702
▁세월이	-10.702
▁중요해	-10.7021
▁남았어	-10.7021
▁신기해	-10.7022
▁인내	-10.7022
▁방구	-10.7023
▁가출	-10.7024
▁파혼했어	-10.7024
▁프로	-10.7024
▁깨졌는데	-10.7024
꾸룩	-10.7025
지긋	-10.7025
▁티비	-10.7025
▁먹어야	-10.7026
▁긴여	-10.7026
▁안되는건가	-10.7027
근무	-10.7027
▁설레발	-10.7027
▁울었어	-10.7028
▁모질	-10.7028
걸리겠어	-10.7028
모닝	-10.7029
▁만나고왔어	-10.703
▁쓰여	-10.703
▁질	-10.7031
▁좋겠	-10.7032
▁변하니	-10.7032
▁절망적	-10.7032
랐다	-10.7032
▁몰아	-10.7033
▁맘대로	-10.7033
▁매정	-10.7033
▁발렌타인데이인데	-10.7033
▁먹방	-10.7033
▁남녀	-10.7034
▁다가가기	-10.7034
▁이성으로	-10.7035
▁냉정해	-10.7035
▁정리해야지	-10.7036
시작이	-10.7036
▁몇번	-10.7037
▁오늘밤	-10.7037
▁답일까	-10.7038
▁사겼는데	-10.7039
▁질리게	-10.704
시급	-10.7043
▁힘들줄	-10.7044
두절	-10.7044
▁않을	-10.7046
▁반갑	-10.7046
▁힘든거네	-10.7047
할꺼야	-10.7047
▁이번주	-10.7047
▁지내는데	-10.7047
▁불효자	-10.7048
▁오르고	-10.7048
▁삼주	-10.7048
▁큰일	-10.7048
▁전남자친구	-10.7048
▁죽음	-10.7049
▁이루어질	-10.7049
▁또라이	-10.7049
▁결혼해야할까	-10.705
▁메일	-10.705
▁내릴까	-10.705
▁질문	-10.7051
▁장수	-10.7051
▁생겼나봐	-10.7052
▁같을까	-10.7053
▁추운	-10.7053
▁기부	-10.7054
▁언제부터	-10.7054
개월동안	-10.7055
▁사회	-10.7056
▁챙기	-10.7057
▁아니지만	-10.7058
▁갈구	-10.7058
▁털어	-10.7059
▁대상	-10.7061
▁때문	-10.7063
▁사이트	-10.7063
▁전화하기	-10.7064
▁과식했	-10.7066
▁멋있어	-10.7066
▁100	-10.7066
▁양심	-10.7067
▁배부르	-10.7068
기능	-10.7068
▁쳐다보	-10.7068
▁다른반	-10.7068
▁되돌리	-10.7068
▁불만만	-10.7071
▁그놈	-10.7071
▁은퇴후	-10.7071
▁유지하	-10.7074
▁무사	-10.7075
▁설레게하	-10.7076
▁있겠죠	-10.7077
▁단수	-10.7077
▁흘렀는데	-10.7079
▁빌어	-10.7079
▁알지만	-10.7079
리스	-10.7079
▁떠나보내	-10.708
아야	-10.708
▁프	-10.708
▁이것만	-10.7081
▁오긴	-10.7083
▁생겼대	-10.7084
▁사줄까	-10.7085
▁기다	-10.7086
▁정상인가	-10.7087
▁외로울	-10.7088
▁없었어	-10.7089
▁놀려	-10.709
▁초라해	-10.7092
▁차임	-10.7093
▁경우에	-10.7093
▁레고	-10.7094
▁매달리	-10.7095
▁기차	-10.7097
인가보다	-10.7098
▁아프니까	-10.71
▁줄어들	-10.71
▁노래들	-10.71
▁가치관이	-10.71
고치기	-10.7103
▁썼는데	-10.7108
▁있다는데	-10.711
▁생일이야	-10.7111
스크	-10.7112
▁우연	-10.7115
리마	-10.7115
▁무뎌졌	-10.7116
▁누구니	-10.7117
낸다	-10.7117
▁않겠지	-10.7119
▁아무말	-10.712
▁힘드네ᅮ	-10.712
▁머	-10.7122
▁부여	-10.7123
보내버렸네	-10.7123
▁용기내	-10.7125
▁안열	-10.7126
▁못잊겠	-10.7127
▁못잊는	-10.7128
▁좋지만	-10.7132
▁늙어가	-10.7133
▁이별이야기	-10.7135
▁다시만나	-10.7136
공간	-10.7137
▁독서	-10.7138
▁회의	-10.7138
▁너덜너덜해	-10.7139
▁도자기	-10.7139
▁짝사랑중	-10.714
▁제사	-10.7141
▁노력한	-10.7142
▁보이는데	-10.7143
▁속지말	-10.7143
▁향	-10.7144
▁못잊을	-10.7146
▁무너졌	-10.7149
▁사무	-10.7151
▁잘했다	-10.7152
▁소통	-10.7154
▁없습니다	-10.7154
데이인데	-10.7154
▁없음	-10.7155
▁질린다	-10.7158
▁행복하지	-10.7159
일뿐	-10.7162
스럽다	-10.7164
▁어려울	-10.7167
리기	-10.7167
▁일주일째	-10.7167
▁화나고	-10.7169
▁저장	-10.7169
▁연하	-10.7173
▁화내는	-10.7176
▁잘못이지	-10.7177
▁집사	-10.7177
▁다짐	-10.7177
한건지	-10.7178
▁지쳐가네	-10.7179
▁입맛없	-10.7179
▁다가	-10.7179
▁메리	-10.7181
▁나올까	-10.7182
▁엿같	-10.7183
만해도	-10.7183
▁다칠	-10.7186
▁멀어진다는	-10.7187
▁선물할	-10.7187
▁꾸는데	-10.7188
▁자유시간	-10.7189
왔나봐	-10.7189
▁나오는데	-10.7191
▁치워	-10.7196
▁욕심	-10.7196
▁하는건	-10.72
▁간지러	-10.7202
▁밉다	-10.7204
▁대리	-10.7207
▁동거중	-10.721
쓰레기통	-10.7211
▁장난치	-10.7211
▁지나면	-10.7217
상화	-10.7219
복되는	-10.7225
▁지친	-10.7227
▁이별할때	-10.7228
▁겨울에	-10.7229
나온	-10.7229
▁사이로	-10.723
▁냉	-10.723
▁삭제하	-10.7231
지망	-10.7235
▁씻기	-10.7236
▁여친과	-10.7239
개월이네	-10.7239
▁나갈	-10.724
▁조심해야겠	-10.7242
▁빠를	-10.7242
▁뭘해도	-10.7245
▁이시간	-10.7246
▁지금까지	-10.7248
▁안좋아	-10.725
▁끄는	-10.725
순수한	-10.725
▁그렇다	-10.7252
▁터지겠	-10.7252
분들께	-10.7253
▁안되나	-10.7255
▁다양	-10.7255
▁시기	-10.7256
▁똑똑	-10.7261
▁추스리	-10.7264
어지지	-10.7267
▁답장해	-10.727
시원해	-10.7271
▁나쁘지	-10.7271
▁두근	-10.7273
증이	-10.7275
긴이별	-10.7278
하겠어	-10.7278
▁시켰	-10.7281
▁한사람	-10.7284
▁사랑이란	-10.7285
▁낳	-10.729
▁썩	-10.729
▁쐬	-10.729
▁켠	-10.729
▁깊	-10.729
▁빈	-10.729
잊어보려고	-10.7292
▁오늘부	-10.7293
▁졸리	-10.7297
▁꼬	-10.7298
▁않나	-10.7299
▁찰랑	-10.7299
▁그후	-10.7301
▁가득	-10.7301
안됩니다	-10.7304
▁어째	-10.7308
▁푸석	-10.731
▁불쌍	-10.7311
▁꼈어	-10.7311
▁충격	-10.7311
▁치킨	-10.7312
실수했다	-10.7316
▁근질	-10.7318
▁하는건가	-10.7319
▁안내는	-10.7319
▁말했으면	-10.732
▁거울	-10.732
▁주절	-10.732
▁놓아주	-10.7321
▁설명	-10.7322
▁지워지	-10.7324
▁사전	-10.7325
하는지	-10.7326
▁주체	-10.7326
기도해	-10.7329
▁과정	-10.7329
▁지났어	-10.733
▁모양	-10.733
▁낀	-10.7333
▁듬	-10.7334
▁시켜줘	-10.7335
▁무덤덤한	-10.7335
축하	-10.7335
정말끝이	-10.7335
▁당했습니다	-10.7336
▁오니	-10.7337
▁미쳤	-10.7342
쓰는	-10.7345
▁가치	-10.7348
왔으면	-10.735
간질	-10.7351
▁이성이	-10.7354
▁외로워서	-10.7356
▁타이밍인	-10.7359
▁짝사랑하	-10.7362
▁가능성	-10.7364
▁용서	-10.7366
▁끝이보	-10.7366
히더라	-10.7367
▁흘렀네	-10.7369
▁황당해	-10.7371
일째인데	-10.7372
▁남긴	-10.7373
▁보드	-10.7375
▁예감	-10.7376
▁견디기	-10.7378
▁기분이야	-10.7379
▁해야겠어	-10.7379
▁연락하기	-10.7385
이공	-10.7387
▁복전하	-10.7388
물어가	-10.7392
▁나아질	-10.7393
▁동안	-10.7394
고쳤	-10.7395
일이야	-10.7397
▁웨딩	-10.7413
보며	-10.7415
▁됩니다	-10.7416
▁훈훈하	-10.7425
▁익숙해지	-10.743
볼때	-10.7431
▁그사람은	-10.7431
장마	-10.7432
▁안타	-10.7433
건너	-10.744
▁운동하	-10.7444
▁싶다는	-10.7446
마시러	-10.7458
▁놓으려	-10.7458
▁가능한	-10.7461
▁비싸다	-10.7461
▁어떤거	-10.7468
▁이뤄지	-10.7469
▁걷는	-10.7473
▁죽고싶	-10.7484
▁이후	-10.7486
구로	-10.7486
▁부럽	-10.7487
▁열어	-10.7488
착	-10.7488
▁울고	-10.7493
▁알게되	-10.7497
▁필요하겠	-10.7497
▁느	-10.7501
▁채	-10.7504
▁있을지	-10.7505
▁다쳤	-10.751
▁사랑했는데	-10.7515
▁그러는	-10.7517
▁할일	-10.752
한거니	-10.752
▁알면	-10.7521
▁지나고	-10.7524
▁잊혀지네	-10.7531
▁붙잡을	-10.7536
▁카톡하는	-10.7543
▁죄인	-10.7551
▁한달인데	-10.756
▁사라지	-10.7568
스럽네	-10.7573
▁엄청나	-10.7592
▁올거	-10.7593
▁단톡에	-10.7597
▁다정	-10.7598
가네	-10.7601
▁오나	-10.7603
사고	-10.7604
사이	-10.7606
우고	-10.7612
▁짱나	-10.7613
▁있다는	-10.7614
▁모의	-10.7616
▁끈이	-10.7617
▁쓸쓸하	-10.7619
▁기복	-10.7621
라면	-10.7623
▁날들	-10.7628
▁가볼까	-10.7629
고싶다	-10.7639
상에	-10.7643
▁않게	-10.7644
▁날이야	-10.7647
▁끝나네	-10.7648
연애였는데	-10.765
잡이	-10.7654
▁핑	-10.7657
▁그에게	-10.7663
지는데	-10.7666
▁영화보자	-10.7671
▁잘지내고있	-10.7671
▁맞춰주	-10.7672
질런지	-10.7676
▁나을가	-10.7678
▁타로	-10.7679
▁궁금한게있	-10.7691
네요	-10.7696
부탁드려	-10.7697
심이	-10.7704
혼전	-10.7708
▁그만둬야	-10.7717
갔네	-10.7719
▁투자라	-10.7725
▁할래	-10.7729
▁일어	-10.7729
자가	-10.7733
▁짜증나게	-10.7736
다면서	-10.7743
▁역	-10.7745
만두	-10.7748
▁주차	-10.7752
▁보시	-10.7753
▁맛난	-10.7754
▁아니지	-10.7755
졌는데	-10.7756
▁그러려	-10.7762
고있었는데	-10.7772
▁홀	-10.778
▁빙	-10.778
▁꾹	-10.778
▁땅	-10.778
▁'	-10.778
▁못자고	-10.7784
▁생각나서	-10.7784
▁없을거	-10.7786
려야	-10.7787
장면	-10.7793
▁일주일이	-10.7806
타이	-10.7806
▁망가	-10.7813
▁치료	-10.7819
▁촬영	-10.7822
▁지켜야	-10.7823
▁생긴다	-10.7826
▁투	-10.7837
갈래	-10.7842
▁키스	-10.7848
▁못잊는거	-10.7853
▁가입	-10.7856
▁식었	-10.7859
▁상처받아	-10.7864
거같은데	-10.7866
▁무색하	-10.7879
▁놓아줬	-10.7882
▁말려	-10.7885
▁아플	-10.7886
▁팔아	-10.7886
▁은퇴해야	-10.7887
▁나오는	-10.789
답이	-10.789
▁마디	-10.7894
나갈까	-10.79
샤워해	-10.7901
...	-10.7914
▁유학간	-10.7922
▁요가	-10.7947
▁일일	-10.7949
▁적을	-10.7954
다는것	-10.7956
▁처음이라	-10.7963
▁잘라야	-10.7967
구만	-10.7967
▁포기하려	-10.798
▁걷다	-10.7981
▁기억안	-10.7998
▁나빠졌	-10.8004
▁해봤어	-10.8008
▁받지	-10.8013
▁놓쳤	-10.8019
▁내장	-10.8019
▁밥먹	-10.802
들겠지	-10.8031
파	-10.8031
▁쿨하	-10.8031
▁보자는	-10.8032
▁잘라	-10.8034
싫어	-10.8036
▁못하네	-10.804
로라	-10.8052
▁못내는	-10.8054
▁잠들	-10.8068
▁왜이	-10.8073
▁이기적	-10.8075
▁조절	-10.8075
▁어색할까	-10.8077
▁한데	-10.8085
▁다가갈	-10.8086
▁막혔	-10.8106
▁낫네	-10.8108
▁달래	-10.8109
▁하루에	-10.8111
듣기	-10.8112
보내	-10.8113
▁어리	-10.812
하자는데	-10.8125
갈까	-10.8133
▁의자	-10.8137
되겠지	-10.8142
▁일기	-10.8145
▁준비해야	-10.816
▁좋아하는건가	-10.816
▁올라오	-10.8168
▁살인	-10.8172
내야하나	-10.8182
▁해외여행가	-10.8184
▁알지	-10.8192
▁마음으로	-10.8192
▁헤어지고나	-10.8197
있는건지	-10.8199
▁필요하	-10.8199
▁첫사랑인	-10.8201
▁잊으려	-10.8206
긴했는데	-10.8206
▁롱	-10.8211
었지	-10.822
차이	-10.822
▁지나간	-10.8222
사랑	-10.8226
있더라	-10.8233
하자는	-10.824
▁여자에	-10.8242
▁헌신하	-10.8244
▁애야	-10.8258
채나	-10.8262
▁알겠	-10.8263
▁수건	-10.8264
▁쌈	-10.8288
▁듣는	-10.8292
▁연애상담	-10.8294
▁지지	-10.8304
지나봐	-10.8307
▁싶다고	-10.8319
▁입어보	-10.8322
▁남는	-10.8328
▁맞는거	-10.8331
▁무너지	-10.8332
감수	-10.836
▁아니라는	-10.837
▁볶	-10.837
▁벌려	-10.8381
▁찍은	-10.8398
▁꽝이	-10.841
거지같이	-10.841
▁울었	-10.8414
져서	-10.8421
▁머릿속에	-10.8428
▁꺼질	-10.8429
▁대하는	-10.8452
▁급	-10.8452
나갔으면	-10.8469
시지	-10.8471
소식을	-10.8478
석해야	-10.848
▁안돼나	-10.8481
▁뿐인	-10.8487
▁달리	-10.8497
▁직장인이	-10.8498
▁신청했	-10.8507
▁더럽	-10.8515
▁이별했	-10.8515
▁터졌	-10.8518
▁놈이	-10.8521
▁이별할	-10.8522
▁살아가	-10.8542
당했	-10.8554
아서	-10.8558
▁들으면	-10.8571
▁휴지	-10.8573
▁왕따인	-10.8588
떠나려	-10.8594
▁하는걸	-10.8597
▁없애야	-10.8597
▁궁	-10.8609
▁따로	-10.8611
져야	-10.8614
▁이별하려	-10.8615
▁남겨	-10.862
▁외로	-10.8631
▁내려놓기	-10.8647
쓰기	-10.8648
▁음	-10.8651
▁먹으니	-10.8651
잘못으로	-10.8652
해준	-10.8652
났었지	-10.8665
▁후회없	-10.8673
▁이별후에	-10.8674
▁선물해	-10.8679
▁밥도	-10.868
▁되겠	-10.8693
▁않는다	-10.8707
▁잘살고	-10.8712
▁받아들여야	-10.8715
▁지내자	-10.8722
다주	-10.873
이러니	-10.8731
▁부담스러워해	-10.8745
안나	-10.8746
나타났	-10.8758
▁이야기는	-10.8779
▁놓았	-10.8782
▁철벽이	-10.8793
심하네	-10.8802
▁여행지	-10.8804
▁좋으	-10.8816
▁프사가	-10.8824
점이	-10.8831
▁이쁘	-10.8838
▁욕먹	-10.8842
▁폭	-10.8843
▁지났	-10.8852
▁로	-10.8853
▁자체	-10.886
상대로	-10.886
▁관심있는	-10.8875
▁결혼준비	-10.8892
을수	-10.8915
▁초대하	-10.8915
▁술마시면	-10.8916
▁저음	-10.8927
하대	-10.8928
▁잠수이별인	-10.893
▁날까	-10.8945
보이	-10.8948
▁비참하	-10.895
▁불행해	-10.8952
해본	-10.8958
자랑	-10.8971
하는거죠	-10.8991
고프다	-10.8993
던게	-10.9001
▁지키	-10.9003
▁가야겠	-10.902
▁이별했어	-10.902
주인	-10.9035
주세요	-10.9051
▁아닌가	-10.9051
▁최악이	-10.9073
▁이루어	-10.9086
▁영상	-10.9091
▁접은	-10.9092
▁바쁘다	-10.9112
ᄒ	-10.9117
▁추	-10.9132
▁담	-10.9145
▁안해야	-10.9155
르다	-10.9159
▁끝내려	-10.9189
▁찾아올	-10.9201
▁올랐	-10.9258
▁못난	-10.9284
▁비우	-10.9297
▁잘보	-10.9297
▁차단한	-10.9305
▁되려	-10.9321
▁게임하	-10.9321
받으면	-10.9323
▁거겠죠	-10.9336
▁연락만	-10.9342
▁끝났다	-10.9345
▁사랑받고	-10.9373
▁돌아왔	-10.9385
편이	-10.939
▁다가왔	-10.9395
▁거래	-10.9402
▁자는	-10.941
오려나	-10.9422
▁차별받	-10.9424
▁혼자있	-10.9424
지도	-10.9449
▁점이	-10.945
▁멀었나	-10.946
▁별이	-10.9461
하거나	-10.9472
▁클럽가	-10.9478
꺼야	-10.9479
▁고치	-10.9481
▁벌어	-10.9485
▁너무나	-10.951
는건지	-10.9517
만난	-10.9525
해줄까	-10.9544
▁취해	-10.9544
▁현실적	-10.9553
드는데	-10.956
인이	-10.957
▁실망했	-10.9595
주신	-10.9602
▁아니였	-10.9604
▁헤어진다	-10.9609
이는	-10.961
▁챙겨주	-10.9616
뭐냐	-10.9625
▁받아줄	-10.9626
▁단톡방에	-10.9629
▁여지	-10.9629
▁끝내는	-10.9689
▁의외인	-10.9697
▁이해해줄	-10.97
감각	-10.97
▁만나지	-10.9712
▁데이트하	-10.9716
▁끝을	-10.9718
▁마셨어	-10.9722
남자친구	-10.9726
▁절친이	-10.9743
▁되었어	-10.9759
▁극복할	-10.9761
▁살았다	-10.9761
▁연애하	-10.9798
전까지	-10.9798
▁북	-10.9808
▁수다	-10.9814
독	-10.982
▁중요하	-10.9829
▁사귀지	-10.9833
▁질려	-10.9867
▁살거	-10.9878
▁먹자	-10.9883
▁참아야	-10.9907
▁잘못했다	-10.9912
▁내일이	-10.9919
▁두려	-10.9922
▁차였	-10.9926
▁냉정하	-10.9953
▁모임	-10.997
▁빠졌	-10.9983
올거	-11.0008
▁김	-11.0011
▁나가	-11.0029
답이야	-11.0031
받아서	-11.0056
▁밥이	-11.0067
▁입니다	-11.0074
▁필요한가	-11.0078
▁건강하	-11.008
▁치맥이	-11.008
▁생겼다는	-11.0091
이게	-11.0093
▁보름달이	-11.0097
▁나아지	-11.0135
버려야	-11.0166
아들	-11.0178
렸다	-11.0181
▁하고싶어	-11.0197
▁진심인	-11.0198
▁나올	-11.0236
여리	-11.0239
▁공시생이	-11.0252
▁이사가	-11.0254
줬	-11.0258
▁부르는	-11.0271
려오네	-11.0273
▁천일	-11.0277
▁붙였	-11.0283
▁인연이었	-11.0291
분이	-11.0292
▁너랑	-11.0297
▁얼었	-11.0316
▁남길	-11.0335
▁비교	-11.0356
▁겨울이	-11.0359
는거같아	-11.0375
거였네	-11.0378
▁덧	-11.0388
▁솔직했	-11.0389
▁오늘로	-11.0424
▁가만	-11.0428
▁사귀기	-11.044
뻔했	-11.0441
▁백	-11.0449
▁보내려	-11.0461
▁인정해야할	-11.0463
▁재미있	-11.0467
▁안받	-11.0467
▁길다	-11.0469
됐습니다	-11.0469
▁해야하는	-11.0475
있니	-11.0479
▁없고	-11.048
▁속상	-11.0487
▁물가	-11.0511
▁데려다주	-11.0512
▁도서관에	-11.0532
▁여자야	-11.054
르지	-11.0552
▁이마	-11.0557
된거	-11.0573
▁행	-11.0582
▁실수했	-11.0594
▁내편	-11.0608
▁된다	-11.0611
▁보내왔	-11.0637
▁안하면	-11.0639
▁말들	-11.0642
▁개당황	-11.0648
▁미치네	-11.0651
▁이기적이	-11.0662
나쁜건지	-11.0679
나와	-11.0704
▁비가오니	-11.071
야해	-11.0713
시간동안	-11.0716
▁맞은	-11.0729
난다면	-11.0731
▁놀았	-11.0737
▁힘든가	-11.0748
줄래	-11.0764
▁잊어야겠	-11.0767
▁잘참	-11.0771
▁연락하	-11.0787
▁말로	-11.0789
▁끝나가	-11.0812
여친	-11.086
▁사랑했	-11.0874
인과	-11.0895
▁불면증인가	-11.0912
히는	-11.0914
을까봐	-11.0968
먹었다	-11.099
▁중독	-11.1008
기간	-11.1015
▁예뻐졌	-11.1022
당황했	-11.1044
▁헤어지겠	-11.106
이거	-11.1103
사람들	-11.1115
▁모자	-11.1162
▁했더	-11.1196
▁찾아가는	-11.1217
▁회사가	-11.1218
가나쁜건지	-11.1221
라는건	-11.1237
들음	-11.1289
으려	-11.129
▁잘하	-11.1313
▁돌리고	-11.1318
버렸	-11.1332
▁반이	-11.134
같이	-11.1343
▁좋아하면서	-11.1343
▁비교하	-11.1343
▁아닌것	-11.137
해야하나	-11.1384
▁마음속에	-11.1402
▁많을까	-11.1441
▁되지	-11.147
▁약이	-11.1471
사람과	-11.1475
였네	-11.1495
▁깨지	-11.1559
▁몰려	-11.1563
▁받으려	-11.1571
▁무리	-11.1585
착해	-11.1604
▁속상하	-11.1608
▁영화보	-11.1638
▁받기	-11.1641
▁떠나야겠	-11.1665
왜	-11.17
▁단거	-11.1702
▁뜨는	-11.1705
▁제자리걸음이	-11.1712
▁요	-11.176
는다는건	-11.1761
▁맛있	-11.177
▁사귀다	-11.1774
▁갔다왔	-11.1785
▁관심있	-11.1794
▁다니	-11.1801
해줄	-11.1819
▁거는	-11.1861
▁뒤숭숭	-11.1862
본지	-11.188
▁얼마전	-11.1906
▁연락하고싶	-11.1943
▁잊은	-11.1945
▁화장하	-11.1963
▁해결해	-11.2015
▁ᄏ	-11.2022
▁안하	-11.2044
있	-11.2076
정말	-11.2101
▁바람난거	-11.2103
하게하	-11.2147
▁주기	-11.2159
▁결혼식이	-11.2177
있으	-11.218
▁무시했	-11.2183
▁학생이	-11.219
▁같았	-11.2198
▁단톡방	-11.22
같은데	-11.2217
▁쓴다	-11.2239
▁차단이	-11.2241
▁잘못했다는	-11.2243
▁끝내야	-11.2274
▁꾸	-11.2282
▁취직할	-11.2305
▁내맘	-11.2332
못한	-11.2341
▁사람하고	-11.2346
▁챙겨주는	-11.2347
많이	-11.2356
▁만들었	-11.2358
▁지옥	-11.2375
▁심각	-11.2384
▁몇시간	-11.2386
▁헤어지신	-11.2401
▁헤어진건	-11.2408
▁마세	-11.2447
▁인정해야	-11.2479
했더	-11.2482
▁병신인	-11.2523
울이	-11.2526
▁이별하	-11.2538
면서도	-11.2561
지않은	-11.2563
다네	-11.2582
▁비참	-11.2598
▁집착인	-11.2643
▁배워보	-11.2671
▁각	-11.2673
▁인스타에	-11.2695
▁동거해도	-11.2704
▁취직하고	-11.273
▁내꺼	-11.2734
▁많았	-11.2736
▁연락하고싶어	-11.2739
자신	-11.276
▁온거	-11.2807
▁밖	-11.2814
▁있는건	-11.2815
▁쓰지	-11.2838
▁싫어졌	-11.2855
▁기억하	-11.286
▁못났	-11.2876
▁오래타	-11.2882
네ᄒ	-11.289
▁스킨십하고	-11.2897
▁나이먹	-11.2897
▁결혼이	-11.2944
편한	-11.2954
▁지하철	-11.2967
먹으면	-11.3
것은	-11.301
▁평가해	-11.3016
내세	-11.3017
▁뭘해야	-11.3075
자제	-11.3081
야할	-11.3095
쓰	-11.3118
었음	-11.3119
이길	-11.312
겨야	-11.3127
▁좋아한	-11.3135
워서	-11.3145
▁편안	-11.3222
키기	-11.3235
▁얼었나	-11.3237
▁맞는건	-11.3247
안했을	-11.3295
▁적극적이	-11.3297
야겠죠	-11.3314
같다가도	-11.3315
▁안되지	-11.3316
▁일년같	-11.3316
▁결혼준비하	-11.3324
으러	-11.3331
▁잊었는	-11.3337
▁철벽	-11.3356
힘드네	-11.3396
▁한달됐	-11.341
타면	-11.3419
▁거라는	-11.3441
▁난다	-11.3524
▁모른척하	-11.3664
▁연애끝	-11.3685
하라	-11.3691
▁좋고	-11.3696
▁끝냈	-11.3752
은것같	-11.3757
▁환승이	-11.3759
한듯	-11.3777
▁보내야	-11.3807
▁재미있을	-11.3817
▁갈거	-11.3817
상해	-11.3841
▁찾았	-11.3852
먹기	-11.3857
모르겠어	-11.3867
상한	-11.3877
헤어진	-11.3883
다녀	-11.3907
▁변하는	-11.3916
▁케	-11.3928
▁사내에	-11.3933
▁가지자	-11.3954
카톡	-11.3967
▁서점	-11.3969
▁꽝	-11.3991
내는	-11.3994
녀한테	-11.4008
▁봐야	-11.4009
▁받을까	-11.4011
힘들어	-11.4017
좋겠다	-11.4017
▁이루	-11.4022
▁잘살	-11.4023
▁차단했	-11.404
▁못잊	-11.4041
▁직장인	-11.4063
술	-11.4064
▁분하	-11.4097
듯해	-11.4109
▁몸에	-11.4119
째인데	-11.4146
좋은	-11.4171
▁변했	-11.4191
자라	-11.4208
▁쉬운가	-11.4233
만나	-11.4269
▁국	-11.4272
인가요	-11.4273
▁헌신	-11.4278
소에서	-11.4281
▁연애상담해	-11.4313
전할	-11.433
▁못가	-11.4336
▁독한	-11.434
▁잘맞	-11.4367
만나고	-11.4375
▁받는다는	-11.4393
사랑이	-11.4403
▁얘기하	-11.4435
▁개같	-11.4437
로워	-11.4438
일만	-11.4458
▁남을까	-11.4471
연애인데	-11.4538
볼	-11.4578
▁어색할	-11.458
▁착각인	-11.4595
사니	-11.4596
알았는데	-11.4599
했었	-11.4633
▁.	-11.4653
▁끝이라	-11.4661
▁참아야겠	-11.4679
▁선택할	-11.4692
짝남한테	-11.4703
아직도	-11.4709
▁전화하면	-11.4713
생일	-11.4724
마지막	-11.473
▁무뎌지	-11.4744
▁죽었나	-11.4773
▁도	-11.4797
되네	-11.4801
힘든	-11.4803
▁잤나	-11.481
보려	-11.482
연락	-11.4839
▁나타	-11.4849
▁웃으	-11.4864
▁연애할	-11.4888
되면	-11.4898
▁원망하	-11.4901
못해	-11.4915
▁무색	-11.4972
▁탈퇴했	-11.4981
휴가	-11.5
▁농구	-11.5023
헤어짐	-11.505
▁후폭풍인가	-11.5073
▁이주	-11.5073
관심	-11.5081
된걸까	-11.5091
켜	-11.5114
▁옆	-11.5123
조심	-11.5156
갔	-11.5157
▁노력하는	-11.5165
됩니다	-11.5187
▁잊었	-11.52
▁딸	-11.5203
헤어졌습니다	-11.521
▁설레는	-11.5218
정리	-11.5227
싶네	-11.5233
생활에	-11.525
않아	-11.526
해지네	-11.5261
▁집착인가	-11.5269
아직	-11.527
날씨	-11.528
여기	-11.5309
조언부탁	-11.532
눈	-11.5334
비해	-11.5334
▁궁금한게	-11.534
▁싸웠는	-11.5357
접	-11.5358
받	-11.5359
격	-11.5364
근해	-11.5383
느	-11.5384
핑	-11.5397
말에	-11.5402
언제	-11.5405
▁해봤	-11.5406
느낌	-11.5411
브	-11.5429
어디	-11.543
싶어지네	-11.5432
소리	-11.5447
커피	-11.545
▁괜찮아질	-11.5466
▁감정적	-11.5478
▁쓸쓸	-11.5482
시험	-11.5483
6	-11.5485
였다	-11.5495
기다리	-11.5495
울렸	-11.5499
자는	-11.5502
▁됐나	-11.5529
겠습니다	-11.5529
연예	-11.5531
▁네달	-11.5549
▁못내	-11.5562
싫다	-11.5562
빨리	-11.5571
▁마시니	-11.5574
질테	-11.5598
▁대하	-11.5605
받는	-11.5618
꽃	-11.5625
거래	-11.5633
인사	-11.5635
못하고	-11.5656
놀	-11.5661
귀	-11.5669
갔는데	-11.567
인생	-11.5673
▁별다	-11.5673
꿈에	-11.5675
듣	-11.568
나가나	-11.5687
해졌	-11.5688
▁고통스러	-11.5688
▁사먹	-11.5693
생	-11.5694
▁알았나	-11.5695
헤어지	-11.5696
시켜	-11.5697
다는건	-11.57
▁얘기할	-11.5706
▁찌질	-11.5716
교	-11.572
몸	-11.5723
아닌	-11.5732
집착	-11.5735
리겠어	-11.5736
응	-11.5739
▁표현해	-11.5741
▁친구같	-11.575
짜증나	-11.5755
▁잘게	-11.5759
덜	-11.5771
▁다되가는	-11.5777
놓	-11.5779
▁견디고	-11.5781
미련	-11.5782
효	-11.5788
직장	-11.5791
▁표현하	-11.5798
퍼	-11.5798
리치	-11.5807
크리스마스	-11.5812
픈데	-11.5816
안되는	-11.5824
▁믿는	-11.5826
▁해야되	-11.5832
카페	-11.5835
별로	-11.5837
위기	-11.5844
▁기억하고	-11.5847
일어나	-11.5853
좋았	-11.5863
이별을	-11.5865
▁놓으	-11.5867
이인데	-11.587
▁화났	-11.5871
졸	-11.5873
봄	-11.5877
미세먼지	-11.5879
쳤	-11.5883
알	-11.5885
꼭	-11.5887
괜찮은	-11.5888
먹었	-11.589
0	-11.5893
끊었	-11.5896
▁훈훈	-11.5898
장거리	-11.59
▁잡혀	-11.5917
▁하려	-11.5919
웨딩	-11.5925
▁진심이	-11.5927
않네	-11.593
도와주	-11.5944
만나기로	-11.5944
▁만남이	-11.5948
보러가	-11.5951
더워	-11.5955
생각나	-11.5956
숨	-11.5956
였는데	-11.5957
▁타야	-11.5957
힘듭니다	-11.5961
내려고	-11.5964
의미	-11.5965
헤어졌네	-11.5965
춘	-11.5983
깜	-11.5984
▁동거하는	-11.5988
좋	-11.5989
중인	-11.5991
떠	-11.5993
시어머니	-11.6
됐네	-11.6001
안하면	-11.6002
해주세	-11.6003
우울	-11.6009
극복	-11.601
이유	-11.6011
취직	-11.6012
둘	-11.6012
▁놓아줄	-11.6012
▁황당	-11.602
없을까	-11.6022
들어와	-11.6023
우울해	-11.6026
sns	-11.6029
두번	-11.6039
좋겠지	-11.604
붙였	-11.6041
하늘	-11.6041
노력해	-11.6044
그럴까	-11.6045
8	-11.6046
끝나	-11.6053
틀	-11.6062
정류장	-11.6064
한잔	-11.6066
예감	-11.6067
부모	-11.6067
듬	-11.607
얘기	-11.607
알면서도	-11.6075
희망	-11.6076
잤어	-11.6078
탔	-11.6078
견해	-11.6079
끝이보	-11.6082
신경	-11.6083
미쳤	-11.6088
남은	-11.6097
부분	-11.6097
언제까지	-11.6098
베터리	-11.6099
았나봐	-11.61
해야하는	-11.6101
▁무덤덤	-11.6101
행복한	-11.6101
무시하	-11.6104
그만하고	-11.6106
낀	-11.6106
▁입는	-11.6111
팔	-11.6111
죽는	-11.6112
능력	-11.6114
▁장거리연애	-11.6116
말투	-11.6116
가능성	-11.6119
9	-11.6122
등	-11.6123
당했습니다	-11.6126
불공평	-11.6128
잊지못	-11.6129
꼬	-11.6132
센	-11.6133
전공	-11.6133
프로포즈	-11.6133
흘렀네	-11.6134
넘었는데	-11.6134
외국어	-11.6134
견디기	-11.6134
공개	-11.6136
마시면	-11.6138
설명	-11.6142
잊혀지네	-11.6146
원망	-11.6148
프로필	-11.6148
뛰어	-11.6149
멋	-11.6151
술한잔	-11.6152
취미	-11.6154
성형	-11.6155
불쌍	-11.6156
충격	-11.6156
▁끝나버	-11.6158
치킨	-11.616
주택	-11.6163
푸석	-11.6163
쉽	-11.6164
답답해서	-11.6165
앞에	-11.6169
뜻	-11.617
널	-11.6171
찰랑	-11.6183
총회	-11.6187
집앞	-11.6188
축제	-11.6189
느껴	-11.6189
커	-11.6189
불쑥	-11.6189
똑똑	-11.619
아파트	-11.6193
평가	-11.6194
근질	-11.6196
상태	-11.6197
시켜줘	-11.6199
봤네	-11.6202
주절	-11.6204
죽겠다	-11.6204
깊	-11.6204
낳	-11.6204
빈	-11.6204
썩	-11.6204
쐬	-11.6204
켠	-11.6204
입을까	-11.6205
▁오르	-11.6207
충	-11.6208
▁달째	-11.621
그랬	-11.6211
보드	-11.6212
곧	-11.6213
▁출근이	-11.6216
축	-11.6218
맞	-11.6222
착한	-11.6222
놀러가	-11.6222
시켰	-11.6224
살아야	-11.6227
잊고싶	-11.6227
여유	-11.623
칼	-11.623
흘	-11.6233
놀아	-11.6234
지났는데	-11.6236
여자와	-11.6238
노력	-11.6239
떼	-11.6241
밟	-11.6241
쭉	-11.6241
흠	-11.6241
끌	-11.6241
변	-11.6241
▁손톱	-11.6242
쫄	-11.6242
키울	-11.6245
김치	-11.6249
즐	-11.6249
프	-11.6251
▁잊어보려	-11.6258
냉	-11.6259
이런건	-11.6263
해질까	-11.6263
꼈어	-11.6264
모임	-11.6265
못하네	-11.6271
농	-11.6271
100	-11.6272
▁추스	-11.6275
▁들으	-11.6277
말하지	-11.6281
기다려야	-11.6286
챙	-11.6289
이었나봐	-11.6289
너와	-11.629
좋은거	-11.6291
아픔이	-11.6295
보냈어	-11.6297
받으니	-11.6303
▁곳에	-11.6307
위해	-11.6315
확	-11.6318
▁사랑하니	-11.6321
받아들여야	-11.6321
▁삭제	-11.6341
쓸까	-11.6342
▁안됐	-11.6356
하러가	-11.6362
▁복잡	-11.6363
마셨	-11.6366
▁혼자라는	-11.6371
▁말하	-11.6374
누	-11.6375
▁낫	-11.6375
없을	-11.6376
▁아물	-11.6377
머	-11.638
싶지	-11.6386
가득	-11.6395
인걸	-11.6401
남자한테	-11.6409
▁휴학하	-11.6414
꾸미	-11.6416
안오	-11.6417
바라	-11.6422
보고싶	-11.6428
바꾸	-11.643
▁부족	-11.6432
▁하고싶	-11.6434
듣고	-11.6436
놀이	-11.6441
달차	-11.6448
▁좋겠는	-11.6448
있다는	-11.6452
▁같은거	-11.6453
애인	-11.6455
▁엿	-11.6456
잊	-11.6461
정이야	-11.6463
동거중인	-11.6464
▁피곤한	-11.6479
오는	-11.6479
▁입맛	-11.6483
막힌다	-11.6493
치워야	-11.6493
있음	-11.6499
▁못하는거	-11.6505
▁뽑	-11.6505
▁누락	-11.6518
았	-11.6522
▁친해지	-11.653
극적이야	-11.6536
없	-11.6546
안주	-11.6548
전과	-11.6554
▁해봐야	-11.656
할줄	-11.6561
▁너덜너덜	-11.6561
들어서	-11.6571
질하게	-11.6577
▁빌	-11.6591
전화	-11.6597
비만이	-11.6606
어찌	-11.6608
걸리	-11.6612
▁낸	-11.6613
코스	-11.6614
듣는	-11.6616
되기	-11.6624
말해	-11.6625
넘어	-11.6625
▁받아들	-11.663
큼	-11.6636
친구인데	-11.6647
어리	-11.6648
▁다되어가	-11.665
졌다는	-11.6651
정리했	-11.6657
걸려	-11.6659
오게	-11.6661
▁터지	-11.6672
▁아프니	-11.6681
▁씹	-11.6689
나나	-11.6701
해야겠어	-11.6702
죽겠	-11.6715
할래	-11.6715
▁손해	-11.6716
▁시작할	-11.6718
찍어	-11.6722
▁조급	-11.6722
▁엇갈	-11.6728
있지	-11.6734
넘은	-11.6738
▁자게	-11.6739
득	-11.6742
오려고	-11.6753
▁털	-11.6756
았다	-11.6772
아졌어	-11.6777
▁사람들에	-11.6782
▁정리했	-11.6783
안하	-11.6785
보는데	-11.6791
▁밀려	-11.6808
▁아깝	-11.6824
▁없으	-11.6824
관리	-11.6825
쟁	-11.683
쁘	-11.6836
▁외국	-11.684
긋	-11.6841
▁절망	-11.6842
▁밀	-11.6844
▁그럴	-11.6845
▁누군	-11.6854
▁과식	-11.6858
만나지	-11.686
출근해	-11.6863
해주세요	-11.6873
▁세월	-11.6875
마스	-11.6877
▁안맞	-11.6883
셨	-11.6887
▁못생	-11.689
드려	-11.6893
▁보냈	-11.6893
밤이	-11.6894
▁초라	-11.6897
람	-11.6903
▁결혼할까	-11.6905
았기	-11.6911
막힌	-11.6916
주려	-11.6919
녀야	-11.6921
이불	-11.6922
렸는데	-11.6932
분해	-11.6935
혔	-11.6936
엇	-11.6937
되겠죠	-11.6948
▁괜찮았	-11.6949
벼	-11.6949
랬	-11.695
▁솔	-11.695
세포	-11.6951
▁고맙	-11.6952
▁나에	-11.6953
▁포	-11.6953
▁연애였	-11.6953
빛	-11.6954
▁당연	-11.6957
지말자	-11.6958
무신	-11.6959
차리	-11.6961
▁발렌타	-11.6961
맙	-11.6962
▁지쳤	-11.6962
꿔	-11.6964
컥	-11.6964
킨	-11.6964
탁	-11.6965
▁눌	-11.6967
▁씁쓸	-11.6967
▁퇴	-11.6967
▁뜬	-11.6967
▁서툴	-11.6967
톱	-11.6968
벽	-11.6968
낭	-11.6968
▁승	-11.6968
▁엄	-11.6969
쩔	-11.6969
곤	-11.6969
춤	-11.6969
▁어렸을	-11.697
갈림	-11.697
▁헬	-11.697
▁맨	-11.697
궈	-11.697
듭	-11.697
봅	-11.6971
▁희생	-11.6971
워졌	-11.6971
▁핸	-11.6971
▁뉴	-11.6971
▁헬스	-11.6971
뚝	-11.6971
콕	-11.6971
찢	-11.6972
첨	-11.6972
▁엊	-11.6972
즘	-11.6972
몽	-11.6972
졋	-11.6972
▁열받	-11.6972
럼	-11.6972
칭	-11.6972
혹	-11.6973
뜨려	-11.6973
딜	-11.6973
▁쌩	-11.6973
봉	-11.6973
▁왕	-11.6973
▁악	-11.6973
냄	-11.6973
댓	-11.6973
j	-11.6973
꽁	-11.6973
렉	-11.6973
롤	-11.6973
롯	-11.6973
챗	-11.6973
굶	-11.6973
뇌	-11.6973
뱄	-11.6973
옇	-11.6973
쩡	-11.6973
츤	-11.6973
펨	-11.6973
힙	-11.6973
평해	-11.6973
L	-11.6973
_	-11.6973
k	-11.6973
▁덤	-11.6973
▁블랙	-11.6973
▁싱	-11.6973
▁특	-11.6973
▁흑	-11.6973
갇	-11.6973
겐	-11.6973
겪	-11.6973
곁	-11.6973
곗	-11.6973
괘	-11.6973
굿	-11.6973
궜	-11.6973
귐	-11.6973
깠	-11.6973
깡	-11.6973
꺽	-11.6973
껀	-11.6973
껏	-11.6973
꼿	-11.6973
꽈	-11.6973
꿧	-11.6973
뀐	-11.6973
냅	-11.6973
넓	-11.6973
넣	-11.6973
놉	-11.6973
뇽	-11.6973
눕	-11.6973
닙	-11.6973
닦	-11.6973
닫	-11.6973
닳	-11.6973
댜	-11.6973
델	-11.6973
둑	-11.6973
뒀	-11.6973
듦	-11.6973
땠	-11.6973
떄	-11.6973
뚫	-11.6973
뛴	-11.6973
뜩	-11.6973
띠	-11.6973
랍	-11.6973
랖	-11.6973
랠	-11.6973
랩	-11.6973
럿	-11.6973
렜	-11.6973
렴	-11.6973
렷	-11.6973
령	-11.6973
륜	-11.6973
멤	-11.6973
묻	-11.6973
뭣	-11.6973
밑	-11.6973
밝	-11.6973
벋	-11.6973
벴	-11.6973
봇	-11.6973
뵈	-11.6973
붕	-11.6973
빔	-11.6973
빴	-11.6973
뺄	-11.6973
뺴	-11.6973
뻘	-11.6973
뻣	-11.6973
뿍	-11.6973
쁠	-11.6973
삽	-11.6973
삿	-11.6973
섰	-11.6973
셥	-11.6973
쌀	-11.6973
쌤	-11.6973
쎄	-11.6973
쎈	-11.6973
쏘	-11.6973
씌	-11.6973
씸	-11.6973
씽	-11.6973
앙	-11.6973
얄	-11.6973
얇	-11.6973
엘	-11.6973
옵	-11.6973
욌	-11.6973
윤	-11.6973
잿	-11.6973
젔	-11.6973
즉	-11.6973
쩝	-11.6973
쫙	-11.6973
쭈	-11.6973
찝	-11.6973
챔	-11.6973
첩	-11.6973
촉	-11.6973
촌	-11.6973
췄	-11.6973
츄	-11.6973
캬	-11.6973
컹	-11.6973
콩	-11.6973
킴	-11.6973
탓	-11.6973
탱	-11.6973
텄	-11.6973
텻	-11.6973
텼	-11.6973
퉜	-11.6973
틈	-11.6973
펜	-11.6973
폐	-11.6973
퓨	-11.6973
픕	-11.6973
핏	-11.6973
햐	-11.6973
협	-11.6973
혜	-11.6973
휨	-11.6973
▁낙	-11.6973
▁쥐	-11.6973
뜸	-11.6973
렐	-11.6973
얽	-11.6973
옛	-11.6973
웁	-11.6973
잌	-11.6973
툭	-11.6973
녔	-11.6973
딧	-11.6973
렁	-11.6973
뭉	-11.6973
▁봉사	-11.6973
▁열받아	-11.6974
▁어울릴	-11.6974
▁포근	-11.6975
낭비	-11.6975
▁맞춤	-11.6975
▁부담스러운	-11.6976
▁알바하는	-11.6977
꿔볼까	-11.6977
▁서류	-11.6979
▁발렌타인	-11.6984
활동	-11.6985
▁적당	-11.6985
각인가	-11.6988
랜드	-11.6989
▁왜이러	-11.6992
▁어색해졌	-11.6993
련하네	-11.6994
▁힘들어하	-11.6995
▁서운한	-11.6996
▁넘어질	-11.6996
리스마	-11.6996
▁식욕	-11.6997
번쯤	-11.7
보고싶네	-11.7003
들께	-11.7004
저그	-11.7004
명이라	-11.7005
▁봐버	-11.7007
▁가네	-11.7007
▁정리하려	-11.701
폭발	-11.7014
▁필요할	-11.7014
▁맞추	-11.7014
데이	-11.7015
덜덜	-11.7016
▁정신차	-11.7018
못하나	-11.7021
죽어	-11.7022
았나	-11.7022
백조	-11.7024
▁한순간	-11.7024
▁미용	-11.7025
키지	-11.7032
습니	-11.7035
▁해보	-11.7037
직할	-11.7039
▁전학	-11.704
▁배울	-11.7041
▁먹먹	-11.7043
▁지웠	-11.7058
지질	-11.7059
▁이겨내	-11.7061
지쳐	-11.7063
이에	-11.7073
했나	-11.7083
▁겁이	-11.7085
리모	-11.7088
▁수상한	-11.7089
하려는	-11.7089
없는거	-11.709
▁여친하	-11.709
▁서운	-11.7097
갈수	-11.7098
▁사겨	-11.7101
▁거지같	-11.7101
▁커플이	-11.7109
픈	-11.7109
▁착각일	-11.7111
▁귀여	-11.7111
에나와	-11.7112
명해	-11.7116
오는데	-11.7117
긴건	-11.7121
남기	-11.7124
연휴	-11.7129
접는	-11.7132
▁주저	-11.7132
▁흘렀는	-11.7155
커풀	-11.7168
럽다	-11.7169
▁야구	-11.717
공하	-11.7174
▁느끼	-11.7182
▁장난인	-11.7185
▁크리	-11.7189
▁긴장	-11.7189
락하	-11.7191
맞는걸	-11.7196
▁결혼하는	-11.7203
학하	-11.7204
든다	-11.7204
개월간	-11.7211
▁끝인거	-11.7213
▁행복할	-11.7213
제이별	-11.7217
트레	-11.7217
▁몇시	-11.7219
별하는	-11.7223
▁피하	-11.7233
바지	-11.7235
▁바래	-11.7247
▁데려	-11.7257
랐는	-11.7264
어볼	-11.7273
적이야	-11.7311
▁오랜만	-11.7311
안되	-11.7314
단해	-11.7324
▁꿈에나	-11.7339
물만	-11.7343
▁이겨	-11.7346
▁변해	-11.735
▁잔인	-11.735
▁치는	-11.7357
혀지질	-11.7357
▁확실하	-11.7363
는방법	-11.7367
되어가는	-11.7381
썸이	-11.7386
▁하긴	-11.7388
한건	-11.7398
▁제안	-11.7406
이루	-11.7433
▁들어줄	-11.7435
까워	-11.7455
적이지	-11.7458
진것	-11.7458
▁안올	-11.7467
자인	-11.7468
실에	-11.7474
물해	-11.7474
먹을까	-11.748
▁고마	-11.7509
다는거	-11.7512
온다면	-11.7516
▁나날	-11.7542
▁잊혀지는	-11.7563
우스	-11.7578
어진지	-11.7579
운데	-11.7581
젠가	-11.7583
안일	-11.7588
▁한다는	-11.759
주일째	-11.7629
▁알았는	-11.7638
국어	-11.7648
만나고싶	-11.7667
해졌어	-11.7736
프사	-11.7771
픈것도	-11.7793
신분	-11.7808
방학했	-11.7815
나갔네	-11.7815
풀이	-11.7829
▁모르나	-11.7832
말고	-11.7836
▁무거	-11.785
고쳐	-11.7866
▁나보	-11.7868
▁살려	-11.7893
거에	-11.7894
▁미끄러	-11.7928
▁말아	-11.7937
트라	-11.7944
날거	-11.7952
진다는	-11.7963
는다	-11.7966
은듯	-11.7973
식하는	-11.799
▁끈	-11.7995
▁고백해	-11.8001
아하게	-11.8012
▁부모	-11.804
▁깜	-11.8058
▁춘	-11.8058
출발	-11.806
▁잘되는	-11.8084
줄거	-11.8086
조심해야	-11.809
나니	-11.8094
▁해주세	-11.81
두근	-11.8119
▁가려	-11.8135
모양	-11.8162
있구나	-11.8171
▁비슷했	-11.8172
주가지	-11.8184
▁생겼나	-11.8225
▁약인	-11.8245
하고싶은	-11.8269
먹는	-11.8302
월이	-11.8307
▁시작되	-11.831
끝인가	-11.8315
사랑인가	-11.8355
반이	-11.836
▁친구인	-11.8362
고있어	-11.8362
▁소개팅하	-11.8375
▁늦는	-11.8445
▁피는	-11.8452
▁보이는	-11.8472
녀와	-11.8506
들텐데	-11.8517
▁길거	-11.8532
오는날	-11.8548
보러간	-11.8568
고통	-11.8573
▁면	-11.858
지워	-11.8595
▁연애인	-11.86
▁깨졌는	-11.8612
▁갠톡하	-11.8643
했는	-11.8657
적인데	-11.8678
줄만	-11.87
▁계속해	-11.8709
빠지	-11.8738
▁소개팅이	-11.8744
▁무한	-11.8747
시는데	-11.8755
어야	-11.8764
▁동거하	-11.8766
일거	-11.8789
▁격	-11.8798
오겠지	-11.8854
▁보자	-11.8879
되가	-11.8892
▁애한	-11.8902
잡아보려	-11.8919
려워	-11.8922
린다	-11.8937
제하는	-11.8952
들어도	-11.8958
▁짝사랑한	-11.8977
▁지쳐가	-11.9006
시나	-11.9009
날이	-11.9009
▁키워	-11.901
날들	-11.9014
▁좋아하는건	-11.9043
▁사람일까	-11.9065
는연애	-11.9113
재가	-11.9135
려합니다	-11.9159
해주지	-11.9164
물가	-11.9165
▁발전하	-11.9217
▁힘들어하는	-11.9218
정적	-11.9222
않으	-11.9266
▁좋은거	-11.931
▁해야되는	-11.9317
나기	-11.9467
▁관	-11.9482
사한	-11.9486
은걸까	-11.9506
▁탄	-11.9513
▁걸리	-11.9551
행이	-11.9571
혼날	-11.9575
사귀다	-11.958
▁둔	-11.9623
되니	-11.9672
내지	-11.9728
스마	-11.9751
▁하우스	-11.9785
▁의	-11.9786
▁기름	-11.9823
장에	-11.9826
중하	-11.9826
애버	-11.9836
▁시켜야	-11.9945
말아	-11.9955
기까지	-11.9977
일을	-11.9992
들어야	-11.9999
▁사지	-12.0005
▁창업해	-12.0024
▁반복하	-12.0037
아오고	-12.0061
▁뭐할	-12.0086
▁카톡해	-12.0135
서로	-12.0185
▁아픔이	-12.02
▁싶어진	-12.0217
단하	-12.0245
였나	-12.0269
▁내리	-12.0289
▁없었	-12.0294
▁줬	-12.0294
장소	-12.0305
쁜데	-12.0344
들다	-12.0357
▁막고	-12.04
다던	-12.0453
▁안했	-12.0459
시비	-12.0461
▁재회했	-12.0462
▁연락했	-12.0487
기력	-12.052
안된	-12.0603
수있	-12.0605
▁나나	-12.0615
▁결혼해야할	-12.0639
해지	-12.0652
수한	-12.0706
▁사인	-12.0859
▁않았다	-12.0865
▁완	-12.0923
▁현실이	-12.0949
▁싶을	-12.0981
▁참는	-12.1004
리며	-12.1092
▁안할	-12.1123
방안	-12.1126
사해	-12.1148
보셨	-12.1221
것이	-12.1267
▁연예	-12.1298
취한	-12.1348
리다	-12.1371
은것	-12.1373
.!	-12.1404
째네	-12.1454
소음	-12.1473
는듯	-12.1514
▁불안하	-12.1523
지났네	-12.1583
울증	-12.1736
▁사랑이야	-12.1751
났다	-12.1756
▁줄어	-12.1866
▁그녀에	-12.1877
기적인	-12.189
▁잊겠	-12.1917
수도	-12.1965
▁알바하	-12.1974
▁면도하	-12.1976
려도	-12.1994
혼해야할까	-12.2023
자리에	-12.2084
▁집나	-12.2146
사랑한대	-12.2181
▁생각한	-12.2204
▁공허하	-12.2206
인한	-12.2214
▁헤어졌는	-12.2222
라해	-12.2288
▁당하	-12.2319
근이	-12.2346
▁카톡에	-12.2346
▁순	-12.2426
않은	-12.2465
▁사겼	-12.2519
▁클	-12.2544
▁갔는	-12.2557
▁일해	-12.2595
▁자르	-12.2609
나는데	-12.2617
너무너무	-12.2621
▁합	-12.2641
▁군	-12.2673
▁멍하	-12.2743
라나	-12.2756
네ᄒᄒ	-12.2782
▁다를	-12.2887
▁야근이	-12.2909
▁햇	-12.2921
▁말했	-12.2963
생겼어	-12.2977
톡하면	-12.299
들어보	-12.303
리를	-12.3091
▁수상	-12.3139
▁겁	-12.321
▁에	-12.3229
▁마지막이	-12.3245
▁분들	-12.3298
만해	-12.3352
하는건지	-12.3428
들기	-12.3452
시러	-12.3491
지고있	-12.37
애니	-12.3721
하기로	-12.3863
▁창	-12.3888
대도	-12.3937
잔하	-12.4037
이별후	-12.4078
같	-12.4161
▁일까	-12.418
▁이별일	-12.4182
▁제자	-12.4197
해봤는데	-12.4255
가보다	-12.4255
▁지르	-12.4269
기기	-12.4355
도로	-12.447
지겠지	-12.4481
앞이	-12.4502
기한	-12.4526
▁데려다줬	-12.4532
거였	-12.4622
싶다는	-12.4631
▁인사하	-12.4634
▁할거	-12.4676
자리인	-12.4749
각해요	-12.4775
▁월	-12.4815
느끼는	-12.4889
▁카톡하	-12.4915
슬퍼하	-12.5091
▁시작했	-12.5123
거같	-12.5141
아오	-12.5187
간거	-12.5341
급이	-12.5415
사람이	-12.5421
정으로	-12.5727
▁힘들겠	-12.5751
▁잊고싶	-12.5799
란게	-12.5811
은건	-12.5824
이별당	-12.5852
▁끊었	-12.5873
앞	-12.5918
을것	-12.5933
지나	-12.5935
달려	-12.5985
▁이기	-12.6024
▁연락왔	-12.604
가야할	-12.6049
못된	-12.6094
반년	-12.6127
▁나오려	-12.6313
해봤어	-12.6337
▁뒤숭숭하	-12.6377
▁가봤	-12.6421
지말	-12.653
▁콜	-12.6545
▁차가	-12.6621
덜해	-12.6663
각이	-12.6771
한거지	-12.6961
▁지금이	-12.6968
▁포기해야할	-12.7052
는척	-12.7118
▁힘들기	-12.7142
는사람	-12.7188
▁줄이	-12.7225
▁때리	-12.7279
▁보내버렸	-12.771
일이	-12.783
구하	-12.7882
▁남을	-12.7932
프네	-12.8026
독하	-12.806
▁어떡	-12.8091
신청했	-12.8096
났는데	-12.8119
러가는	-12.8266
맞아	-12.8342
되고	-12.835
▁배려해	-12.8484
친구와	-12.8507
▁보내주	-12.8559
부르고	-12.8698
메리	-12.8726
가져	-12.8866
썸	-12.8958
가는데	-12.8968
만족	-12.9
이었는데	-12.9007
▁잘가	-12.9053
▁여자친구에	-12.9137
되나	-12.9223
보내야	-12.926
▁말만	-12.9575
거는	-12.9825
워지	-12.9937
▁많아졌	-13.0052
▁잘한	-13.0367
달라	-13.0449
기적	-13.0454
훌	-13.048
훅	-13.0481
져가	-13.0482
헉	-13.0482
푹	-13.0483
팠	-13.0484
튀	-13.0485
텨	-13.0486
텅	-13.0487
컸	-13.0488
컷	-13.0489
쪘	-13.049
짬	-13.0491
좌	-13.0492
젊	-13.0493
엮	-13.0494
씰	-13.0495
썰	-13.0496
슈	-13.0497
숏	-13.0498
섞	-13.0499
샐	-13.05
쁨	-13.0501
뽕	-13.0502
뺏	-13.0503
볕	-13.0504
맴	-13.0505
릇	-13.0506
띵	-13.0507
딪	-13.0508
덮	-13.0509
댔	-13.051
닿	-13.0511
논	-13.0512
넷	-13.0513
뀔	-13.0514
꼴	-13.0515
깼	-13.0516
깰	-13.0517
깬	-13.0518
깔	-13.0519
겜	-13.052
검	-13.0521
갱	-13.0522
흑	-13.0523
훔	-13.0524
홧	-13.0525
헛	-13.0526
팀	-13.0527
털	-13.0528
턱	-13.0529
쿵	-13.053
찰	-13.0531
▁편인	-13.0531
쪼	-13.0532
쪄	-13.0533
짼	-13.0534
짠	-13.0535
쥐	-13.0536
엿	-13.0537
엊	-13.0538
앱	-13.0539
씁	-13.054
쏠	-13.0541
쏟	-13.0542
섬	-13.0543
삭	-13.0544
빚	-13.0545
묘	-13.0546
랙	-13.0547
뜬	-13.0548
못하는	-13.0548
떴	-13.0549
됬	-13.055
눌	-13.0551
낸	-13.0552
낙	-13.0553
꽝	-13.0554
깍	-13.0555
틱	-13.0556
툴	-13.0557
텁	-13.0558
쿨	-13.0559
촬	-13.056
총	-13.0561
찜	-13.0562
잇	-13.0563
옳	-13.0564
얻	-13.0565
앉	-13.0566
삶	-13.0567
삐	-13.0568
밉	-13.0569
멘	-13.057
릎	-13.0571
뤄	-13.0572
뢰	-13.0573
뜰	-13.0574
둠	-13.0575
높	-13.0576
낮	-13.0577
꽉	-13.0578
꼼	-13.0579
깝	-13.058
광	-13.0581
갠	-13.0582
갚	-13.0583
A	-13.0584
휘	-13.0585
획	-13.0586
헌	-13.0587
폼	-13.0588
툼	-13.0589
켰	-13.059
찼	-13.0591
왠	-13.0592
쌍	-13.0593
벤	-13.0594
밍	-13.0595
멈	-13.0596
띄	-13.0597
땀	-13.0598
됩	-13.0599
끓	-13.06
긁	-13.0601
객	-13.0602
특	-13.0603
죄	-13.0604
젯	-13.0605
잖	-13.0606
옆	-13.0607
엽	-13.0608
씻	-13.0609
쓴	-13.061
썹	-13.0611
쌩	-13.0612
싼	-13.0613
빡	-13.0614
벚	-13.0615
렘	-13.0616
닥	-13.0617
늙	-13.0618
낚	-13.0619
찔	-13.062
징	-13.0621
왕	-13.0622
샤	-13.0623
닮	-13.0624
뀌	-13.0625
깎	-13.0626
훈	-13.0627
짱	-13.0628
잃	-13.0629
엉	-13.063
슷	-13.0631
뽑	-13.0632
뽀	-13.0633
랫	-13.0634
뛰	-13.0635
땡	-13.0636
딴	-13.0637
귈	-13.0638
닐	-13.0639
n	-13.064
N	-13.0641
춰	-13.0642
립	-13.0643
딸	-13.0644
뒷	-13.0645
뎌	-13.0646
규	-13.0647
겹	-13.0648
흔	-13.0649
흐	-13.065
헬	-13.0651
큰	-13.0652
어떻게	-13.0653
춥	-13.0653
씹	-13.0654
넌	-13.0655
낫	-13.0656
끄	-13.0657
권	-13.0658
걷	-13.0659
희	-13.066
헷	-13.0661
컴	-13.0662
썼	-13.0663
쌓	-13.0664
벗	-13.0665
렌	-13.0666
걔	-13.0667
웨	-13.0668
쇼	-13.0669
뉴	-13.067
뜨	-13.0671
녕	-13.0672
귄	-13.0673
잤	-13.0674
싱	-13.0675
빌	-13.0676
덤	-13.0677
녁	-13.0678
7	-13.0679
셀	-13.068
철	-13.0681
솔	-13.0682
삼	-13.0683
멍	-13.0684
짧	-13.0685
읽	-13.0686
숭	-13.0687
s	-13.0688
픔	-13.0689
샀	-13.069
렵	-13.0691
럴	-13.0692
▁염	-13.0693
믿	-13.0693
S	-13.0694
멀	-13.0695
괴	-13.0696
악	-13.0697
갖	-13.0698
랐	-13.0699
똑	-13.07
밌	-13.0701
평	-13.0702
니고	-13.0702
존	-13.0703
밀	-13.0704
풍	-13.0705
웃	-13.0706
승	-13.0707
슴	-13.0708
끊	-13.0709
깨	-13.071
걱	-13.0711
냈	-13.0712
맨	-13.0713
퇴	-13.0714
핸	-13.0715
택	-13.0716
쁜	-13.0717
최	-13.0718
텐	-13.0719
몇	-13.072
뭔	-13.0721
포	-13.0722
봤	-13.0723
팅	-13.0724
떤	-13.0725
슨	-13.0726
험	-13.0727
현	-13.0728
억	-13.0729
필	-13.073
첫	-13.0731
렸	-13.0732
닌	-13.0733
죽	-13.0734
엄	-13.0735
먼	-13.0736
뭘	-13.0737
겼	-13.0738
떨	-13.0739
렇	-13.074
막	-13.0741
편	-13.0742
괜	-13.0743
않	-13.0744
싫	-13.0745
찮	-13.0746
왔	-13.0747
졌	-13.0748
떻	-13.0749
많	-13.075
뭐	-13.0751
혼	-13.0752
힘	-13.0753
헤	-13.0754
▁생활	-13.0755
싶	-13.0755
